{
  "version": "1.0",
  "truncation": null,
  "padding": null,
  "added_tokens": [
    {
      "id": 0,
      "content": "<pad>",
      "single_word": false,
      "lstrip": false,
      "rstrip": false,
      "normalized": false,
      "special": true
    },
    {
      "id": 1,
      "content": "<unk>",
      "single_word": false,
      "lstrip": false,
      "rstrip": false,
      "normalized": false,
      "special": true
    },
    {
      "id": 2,
      "content": "<s>",
      "single_word": false,
      "lstrip": false,
      "rstrip": false,
      "normalized": false,
      "special": true
    },
    {
      "id": 3,
      "content": "</s>",
      "single_word": false,
      "lstrip": false,
      "rstrip": false,
      "normalized": false,
      "special": true
    }
  ],
  "normalizer": {
    "type": "NFKC"
  },
  "pre_tokenizer": {
    "type": "Whitespace"
  },
  "post_processor": null,
  "decoder": null,
  "model": {
    "type": "BPE",
    "dropout": null,
    "unk_token": null,
    "continuing_subword_prefix": null,
    "end_of_word_suffix": null,
    "fuse_unk": false,
    "byte_fallback": false,
    "ignore_merges": false,
    "vocab": {
      "<pad>": 0,
      "<unk>": 1,
      "<s>": 2,
      "</s>": 3,
      "!": 4,
      "\"": 5,
      "$": 6,
      "%": 7,
      "'": 8,
      "(": 9,
      ")": 10,
      "+": 11,
      ",": 12,
      "-": 13,
      ".": 14,
      "/": 15,
      "0": 16,
      "1": 17,
      "2": 18,
      "3": 19,
      "4": 20,
      "5": 21,
      "6": 22,
      "7": 23,
      "8": 24,
      "9": 25,
      ":": 26,
      ";": 27,
      "?": 28,
      "A": 29,
      "B": 30,
      "C": 31,
      "D": 32,
      "E": 33,
      "F": 34,
      "G": 35,
      "H": 36,
      "I": 37,
      "J": 38,
      "K": 39,
      "L": 40,
      "M": 41,
      "N": 42,
      "O": 43,
      "P": 44,
      "Q": 45,
      "R": 46,
      "S": 47,
      "T": 48,
      "U": 49,
      "V": 50,
      "W": 51,
      "X": 52,
      "Y": 53,
      "Z": 54,
      "[": 55,
      "]": 56,
      "a": 57,
      "b": 58,
      "c": 59,
      "d": 60,
      "e": 61,
      "f": 62,
      "g": 63,
      "h": 64,
      "i": 65,
      "j": 66,
      "k": 67,
      "l": 68,
      "m": 69,
      "n": 70,
      "o": 71,
      "p": 72,
      "q": 73,
      "r": 74,
      "s": 75,
      "t": 76,
      "u": 77,
      "v": 78,
      "w": 79,
      "x": 80,
      "y": 81,
      "z": 82,
      "£": 83,
      "­": 84,
      "Á": 85,
      "Ä": 86,
      "Ö": 87,
      "Ü": 88,
      "ß": 89,
      "à": 90,
      "á": 91,
      "â": 92,
      "ã": 93,
      "ä": 94,
      "æ": 95,
      "ç": 96,
      "è": 97,
      "é": 98,
      "ê": 99,
      "í": 100,
      "ï": 101,
      "ñ": 102,
      "ò": 103,
      "ó": 104,
      "ô": 105,
      "ö": 106,
      "ø": 107,
      "ú": 108,
      "û": 109,
      "ü": 110,
      "⁄": 111,
      "en": 112,
      "er": 113,
      "in": 114,
      "ch": 115,
      "th": 116,
      "on": 117,
      "es": 118,
      "an": 119,
      "is": 120,
      "un": 121,
      "it": 122,
      "at": 123,
      "ie": 124,
      "the": 125,
      "re": 126,
      "al": 127,
      "or": 128,
      "ich": 129,
      "ion": 130,
      "der": 131,
      "st": 132,
      "ar": 133,
      "ro": 134,
      "ent": 135,
      "le": 136,
      "be": 137,
      "as": 138,
      "to": 139,
      "of": 140,
      "ge": 141,
      "ung": 142,
      "ein": 143,
      "te": 144,
      "and": 145,
      "die": 146,
      "au": 147,
      "de": 148,
      "om": 149,
      "wi": 150,
      "und": 151,
      "ur": 152,
      "den": 153,
      "ing": 154,
      "am": 155,
      "ig": 156,
      "we": 157,
      "ol": 158,
      "se": 159,
      "ve": 160,
      "sch": 161,
      "im": 162,
      "ic": 163,
      "zu": 164,
      "ou": 165,
      "omm": 166,
      "ver": 167,
      "icht": 168,
      "ies": 169,
      "ed": 170,
      "ll": 171,
      "ten": 172,
      "for": 173,
      "ter": 174,
      "ation": 175,
      "ab": 176,
      "em": 177,
      "rop": 178,
      "gen": 179,
      "da": 180,
      "ra": 181,
      "lich": 182,
      "that": 183,
      "ct": 184,
      "he": 185,
      "no": 186,
      "ly": 187,
      "ber": 188,
      "iss": 189,
      "hr": 190,
      "il": 191,
      "wh": 192,
      "wir": 193,
      "ür": 194,
      "ne": 195,
      "so": 196,
      "isch": 197,
      "urop": 198,
      "ut": 199,
      "ist": 200,
      "ke": 201,
      "con": 202,
      "pro": 203,
      "ment": 204,
      "id": 205,
      "ere": 206,
      "Europ": 207,
      "res": 208,
      "ommiss": 209,
      "us": 210,
      "ir": 211,
      "dies": 212,
      "ier": 213,
      "ommission": 214,
      "sp": 215,
      "are": 216,
      "auf": 217,
      "daß": 218,
      "ce": 219,
      "ha": 220,
      "für": 221,
      "this": 222,
      "wer": 223,
      "ort": 224,
      "von": 225,
      "op": 226,
      "tr": 227,
      "um": 228,
      "ld": 229,
      "eine": 230,
      "ft": 231,
      "ach": 232,
      "des": 233,
      "me": 234,
      "all": 235,
      "Un": 236,
      "if": 237,
      "gr": 238,
      "ul": 239,
      "Ver": 240,
      "est": 241,
      "men": 242,
      "not": 243,
      "nicht": 244,
      "kt": 245,
      "ive": 246,
      "mit": 247,
      "In": 248,
      "ischen": 249,
      "our": 250,
      "with": 251,
      "das": 252,
      "ta": 253,
      "ould": 254,
      "dem": 255,
      "which": 256,
      "Re": 257,
      "la": 258,
      "su": 259,
      "et": 260,
      "ges": 261,
      "aus": 262,
      "ate": 263,
      "ial": 264,
      "ind": 265,
      "ust": 266,
      "ungen": 267,
      "ck": 268,
      "Europe": 269,
      "ess": 270,
      "os": 271,
      "li": 272,
      "have": 273,
      "Par": 274,
      "ident": 275,
      "ity": 276,
      "end": 277,
      "lie": 278,
      "ament": 279,
      "vor": 280,
      "co": 281,
      "ff": 282,
      "ex": 283,
      "Be": 284,
      "än": 285,
      "auch": 286,
      "ts": 287,
      "ben": 288,
      "ad": 289,
      "ste": 290,
      "port": 291,
      "will": 292,
      "werden": 293,
      "sh": 294,
      "ma": 295,
      "Commission": 296,
      "sen": 297,
      "über": 298,
      "ze": 299,
      "nen": 300,
      "pol": 301,
      "iti": 302,
      "mo": 303,
      "scha": 304,
      "ant": 305,
      "sich": 306,
      "qu": 307,
      "Union": 308,
      "Th": 309,
      "ungs": 310,
      "An": 311,
      "lo": 312,
      "com": 313,
      "The": 314,
      "ah": 315,
      "ions": 316,
      "ib": 317,
      "uns": 318,
      "European": 319,
      "by": 320,
      "wie": 321,
      "iv": 322,
      "err": 323,
      "We": 324,
      "igen": 325,
      "fa": 326,
      "tz": 327,
      "ht": 328,
      "has": 329,
      "ag": 330,
      "uß": 331,
      "ern": 332,
      "pe": 333,
      "ann": 334,
      "do": 335,
      "Kommission": 336,
      "its": 337,
      "hal": 338,
      "schaft": 339,
      "wor": 340,
      "Mr": 341,
      "hen": 342,
      "Pro": 343,
      "str": 344,
      "ap": 345,
      "par": 346,
      "Herr": 347,
      "reg": 348,
      "En": 349,
      "ther": 350,
      "als": 351,
      "rä": 352,
      "einer": 353,
      "St": 354,
      "was": 355,
      "oll": 356,
      "hat": 357,
      "00": 358,
      "ien": 359,
      "lt": 360,
      "sa": 361,
      "wird": 362,
      "99": 363,
      "je": 364,
      "Ich": 365,
      "aben": 366,
      "fe": 367,
      "go": 368,
      "Aus": 369,
      "bei": 370,
      "Mit": 371,
      "mö": 372,
      "out": 373,
      "up": 374,
      "Die": 375,
      "sind": 376,
      "iel": 377,
      "also": 378,
      "ken": 379,
      "keit": 380,
      "ische": 381,
      "man": 382,
      "dar": 383,
      "would": 384,
      "Ar": 385,
      "zur": 386,
      "chte": 387,
      "haben": 388,
      "Er": 389,
      "there": 390,
      "fü": 391,
      "leg": 392,
      "ted": 393,
      "lichen": 394,
      "Wir": 395,
      "pr": 396,
      "war": 397,
      "ord": 398,
      "ue": 399,
      "ac": 400,
      "able": 401,
      "bes": 402,
      "fer": 403,
      "her": 404,
      "Europä": 405,
      "Ent": 406,
      "ger": 407,
      "one": 408,
      "cht": 409,
      "ob": 410,
      "räs": 411,
      "inter": 412,
      "cial": 413,
      "heit": 414,
      "Pres": 415,
      "Sch": 416,
      "ip": 417,
      "ise": 418,
      "fin": 419,
      "po": 420,
      "tra": 421,
      "dern": 422,
      "räsident": 423,
      "einen": 424,
      "ure": 425,
      "should": 426,
      "Vor": 427,
      "form": 428,
      "gram": 429,
      "el": 430,
      "fo": 431,
      "part": 432,
      "imm": 433,
      "ug": 434,
      "sie": 435,
      "enn": 436,
      "weit": 437,
      "ese": 438,
      "can": 439,
      "lament": 440,
      "vel": 441,
      "ble": 442,
      "ens": 443,
      "sta": 444,
      "ational": 445,
      "beit": 446,
      "Fr": 447,
      "lin": 448,
      "sam": 449,
      "liament": 450,
      "ät": 451,
      "ates": 452,
      "ige": 453,
      "är": 454,
      "Parlament": 455,
      "spe": 456,
      "gan": 457,
      "per": 458,
      "ass": 459,
      "inc": 460,
      "Ber": 461,
      "unter": 462,
      "hren": 463,
      "prop": 464,
      "must": 465,
      "ations": 466,
      "Reg": 467,
      "rom": 468,
      "ult": 469,
      "Ab": 470,
      "President": 471,
      "br": 472,
      "comm": 473,
      "ember": 474,
      "ör": 475,
      "ical": 476,
      "üs": 477,
      "ire": 478,
      "urch": 479,
      "pos": 480,
      "ön": 481,
      "Ein": 482,
      "Sie": 483,
      "ition": 484,
      "coun": 485,
      "sel": 486,
      "ction": 487,
      "diese": 488,
      "ous": 489,
      "wa": 490,
      "nach": 491,
      "aten": 492,
      "you": 493,
      "pres": 494,
      "Parliament": 495,
      "Ge": 496,
      "but": 497,
      "hin": 498,
      "from": 499,
      "Präsident": 500,
      "been": 501,
      "Fra": 502,
      "wo": 503,
      "ds": 504,
      "ow": 505,
      "llen": 506,
      "ple": 507,
      "rit": 508,
      "chen": 509,
      "very": 510,
      "Au": 511,
      "199": 512,
      "national": 513,
      "dis": 514,
      "fen": 515,
      "ommen": 516,
      "pre": 517,
      "eit": 518,
      "It": 519,
      "bet": 520,
      "conc": 521,
      "reat": 522,
      "lic": 523,
      "Gr": 524,
      "wä": 525,
      "kön": 526,
      "kann": 527,
      "polic": 528,
      "möchte": 529,
      "ative": 530,
      "alle": 531,
      "Bericht": 532,
      "more": 533,
      "dieser": 534,
      "EU": 535,
      "üssen": 536,
      "polit": 537,
      "ih": 538,
      "soll": 539,
      "cess": 540,
      "durch": 541,
      "Co": 542,
      "gro": 543,
      "ments": 544,
      "Member": 545,
      "work": 546,
      "ide": 547,
      "ange": 548,
      "ctive": 549,
      "This": 550,
      "ute": 551,
      "now": 552,
      "liche": 553,
      "noch": 554,
      "müssen": 555,
      "ill": 556,
      "kon": 557,
      "ander": 558,
      "fore": 559,
      "ün": 560,
      "ution": 561,
      "Europäischen": 562,
      "sten": 563,
      "reich": 564,
      "like": 565,
      "unc": 566,
      "tel": 567,
      "ang": 568,
      "ance": 569,
      "itik": 570,
      "enz": 571,
      "igh": 572,
      "nah": 573,
      "lung": 574,
      "muß": 575,
      "wur": 576,
      "ish": 577,
      "velop": 578,
      "che": 579,
      "ans": 580,
      "glie": 581,
      "other": 582,
      "tro": 583,
      "ierung": 584,
      "countr": 585,
      "vo": 586,
      "stru": 587,
      "od": 588,
      "fol": 589,
      "age": 590,
      "ms": 591,
      "fr": 592,
      "sed": 593,
      "ieren": 594,
      "ers": 595,
      "gem": 596,
      "zum": 597,
      "Ko": 598,
      "legen": 599,
      "ary": 600,
      "ally": 601,
      "du": 602,
      "these": 603,
      "igkeit": 604,
      "hand": 605,
      "develop": 606,
      "Counc": 607,
      "Council": 608,
      "Das": 609,
      "stat": 610,
      "ome": 611,
      "tschaft": 612,
      "pt": 613,
      "cy": 614,
      "teil": 615,
      "diesem": 616,
      "nur": 617,
      "Comm": 618,
      "ub": 619,
      "wick": 620,
      "who": 621,
      "under": 622,
      "import": 623,
      "ank": 624,
      "Mitglie": 625,
      "können": 626,
      "tim": 627,
      "anz": 628,
      "ight": 629,
      "program": 630,
      "report": 631,
      "Um": 632,
      "need": 633,
      "hl": 634,
      "ser": 635,
      "sib": 636,
      "aber": 637,
      "inst": 638,
      "wenn": 639,
      "ast": 640,
      "tre": 641,
      "einem": 642,
      "sicht": 643,
      "glich": 644,
      "ner": 645,
      "ard": 646,
      "Es": 647,
      "ri": 648,
      "Frau": 649,
      "og": 650,
      "stem": 651,
      "mar": 652,
      "pl": 653,
      "änd": 654,
      "ider": 655,
      "ück": 656,
      "setz": 657,
      "cons": 658,
      "ject": 659,
      "Entwick": 660,
      "int": 661,
      "ystem": 662,
      "lar": 663,
      "ear": 664,
      "ok": 665,
      "ionen": 666,
      "what": 667,
      "hmen": 668,
      "dam": 669,
      "Ma": 670,
      "cau": 671,
      "son": 672,
      "unser": 673,
      "way": 674,
      "geb": 675,
      "comp": 676,
      "gegen": 677,
      "oder": 678,
      "rat": 679,
      "uropä": 680,
      "iert": 681,
      "sol": 682,
      "leich": 683,
      "their": 684,
      "policy": 685,
      "vern": 686,
      "new": 687,
      "etz": 688,
      "my": 689,
      "some": 690,
      "just": 691,
      "unkt": 692,
      "ität": 693,
      "ließ": 694,
      "gt": 695,
      "zw": 696,
      "fact": 697,
      "europä": 698,
      "Mitglied": 699,
      "sein": 700,
      "gel": 701,
      "stand": 702,
      "führ": 703,
      "any": 704,
      "dec": 705,
      "kommen": 706,
      "unity": 707,
      "ater": 708,
      "arbeit": 709,
      "ities": 710,
      "States": 711,
      "bar": 712,
      "ious": 713,
      "onder": 714,
      "Zus": 715,
      "lä": 716,
      "nung": 717,
      "ev": 718,
      "mehr": 719,
      "wicht": 720,
      "Kon": 721,
      "Rat": 722,
      "zial": 723,
      "ud": 724,
      "vie": 725,
      "och": 726,
      "about": 727,
      "econ": 728,
      "Mitgliedsta": 729,
      "schen": 730,
      "weiter": 731,
      "ces": 732,
      "min": 733,
      "ffe": 734,
      "fre": 735,
      "ated": 736,
      "sehr": 737,
      "act": 738,
      "tain": 739,
      "Unter": 740,
      "itu": 741,
      "200": 742,
      "So": 743,
      "partic": 744,
      "ice": 745,
      "ility": 746,
      "quest": 747,
      "dire": 748,
      "king": 749,
      "ster": 750,
      "sup": 751,
      "ffen": 752,
      "present": 753,
      "Ja": 754,
      "ional": 755,
      "utz": 756,
      "De": 757,
      "important": 758,
      "Dies": 759,
      "nis": 760,
      "eben": 761,
      "day": 762,
      "concern": 763,
      "they": 764,
      "Gem": 765,
      "itte": 766,
      "uss": 767,
      "gu": 768,
      "eines": 769,
      "dieses": 770,
      "uch": 771,
      "iden": 772,
      "ik": 773,
      "ural": 774,
      "cause": 775,
      "dr": 776,
      "only": 777,
      "cle": 778,
      "countries": 779,
      "Gemein": 780,
      "stell": 781,
      "schließ": 782,
      "Kol": 783,
      "zie": 784,
      "olitik": 785,
      "irst": 786,
      "propos": 787,
      "ular": 788,
      "assen": 789,
      "ement": 790,
      "iven": 791,
      "agre": 792,
      "bere": 793,
      "ced": 794,
      "hier": 795,
      "ins": 796,
      "prov": 797,
      "Grund": 798,
      "time": 799,
      "sche": 800,
      "come": 801,
      "say": 802,
      "Vorsch": 803,
      "oc": 804,
      "ansp": 805,
      "order": 806,
      "Art": 807,
      "ammen": 808,
      "sub": 809,
      "econom": 810,
      "thing": 811,
      "Entwicklung": 812,
      "ose": 813,
      "year": 814,
      "tell": 815,
      "deut": 816,
      "trä": 817,
      "Zusammen": 818,
      "development": 819,
      "gesch": 820,
      "oper": 821,
      "kte": 822,
      "1999": 823,
      "Mitgliedstaaten": 824,
      "geben": 825,
      "hör": 826,
      "take": 827,
      "bo": 828,
      "ence": 829,
      "besonder": 830,
      "rel": 831,
      "ite": 832,
      "halb": 833,
      "wend": 834,
      "such": 835,
      "Bere": 836,
      "cur": 837,
      "ütz": 838,
      "reas": 839,
      "ded": 840,
      "igt": 841,
      "Auf": 842,
      "proble": 843,
      "cour": 844,
      "social": 845,
      "iz": 846,
      "ong": 847,
      "deb": 848,
      "ives": 849,
      "alt": 850,
      "nehmen": 851,
      "therefore": 852,
      "ak": 853,
      "änder": 854,
      "Frage": 855,
      "dif": 856,
      "Men": 857,
      "ween": 858,
      "owe": 859,
      "pla": 860,
      "tet": 861,
      "emp": 862,
      "Ges": 863,
      "los": 864,
      "Inter": 865,
      "ibt": 866,
      "Program": 867,
      "ER": 868,
      "Proble": 869,
      "between": 870,
      "because": 871,
      "ign": 872,
      "fra": 873,
      "wirtschaft": 874,
      "into": 875,
      "gleich": 876,
      "wirk": 877,
      "ituation": 878,
      "govern": 879,
      "ople": 880,
      "wurde": 881,
      "particular": 882,
      "itiative": 883,
      "system": 884,
      "wel": 885,
      "Fin": 886,
      "clear": 887,
      "Bes": 888,
      "gemein": 889,
      "ßnah": 890,
      "iger": 891,
      "Europa": 892,
      "Än": 893,
      "ink": 894,
      "make": 895,
      "As": 896,
      "fä": 897,
      "vir": 898,
      "welt": 899,
      "neu": 900,
      "iß": 901,
      "ty": 902,
      "lle": 903,
      "mon": 904,
      "jed": 905,
      "halten": 906,
      "mat": 907,
      "Änder": 908,
      "Sta": 909,
      "ihr": 910,
      "entr": 911,
      "Richt": 912,
      "vent": 913,
      "ied": 914,
      "stellen": 915,
      "aga": 916,
      "chts": 917,
      "forder": 918,
      "ihre": 919,
      "over": 920,
      "read": 921,
      "oug": 922,
      "ia": 923,
      "zwischen": 924,
      "support": 925,
      "pub": 926,
      "sure": 927,
      "ateg": 928,
      "ights": 929,
      "pa": 930,
      "art": 931,
      "sible": 932,
      "Str": 933,
      "ahl": 934,
      "owever": 935,
      "bas": 936,
      "best": 937,
      "get": 938,
      "pon": 939,
      "Commissioner": 940,
      "ific": 941,
      "rap": 942,
      "Ih": 943,
      "when": 944,
      "pect": 945,
      "Menschen": 946,
      "ding": 947,
      "onment": 948,
      "people": 949,
      "Arbeit": 950,
      "Bereich": 951,
      "ittee": 952,
      "vironment": 953,
      "viel": 954,
      "Zeit": 955,
      "richt": 956,
      "fall": 957,
      "stütz": 958,
      "äch": 959,
      "lag": 960,
      "denen": 961,
      "same": 962,
      "etzt": 963,
      "isation": 964,
      "wür": 965,
      "them": 966,
      "land": 967,
      "mer": 968,
      "ständ": 969,
      "kl": 970,
      "Europäische": 971,
      "igung": 972,
      "consider": 973,
      "sondern": 974,
      "Der": 975,
      "wen": 976,
      "äm": 977,
      "spre": 978,
      "Community": 979,
      "cr": 980,
      "xt": 981,
      "inv": 982,
      "made": 983,
      "mich": 984,
      "ues": 985,
      "damit": 986,
      "qual": 987,
      "ures": 988,
      "ved": 989,
      "effe": 990,
      "ision": 991,
      "atz": 992,
      "being": 993,
      "ßnahmen": 994,
      "trag": 995,
      "jedoch": 996,
      "respon": 997,
      "point": 998,
      "first": 999,
      "sicher": 1000,
      "fund": 1001,
      "within": 1002,
      "political": 1003,
      "europäischen": 1004,
      "cas": 1005,
      "wort": 1006,
      "2000": 1007,
      "ot": 1008,
      "pf": 1009,
      "letz": 1010,
      "car": 1011,
      "were": 1012,
      "where": 1013,
      "gibt": 1014,
      "Über": 1015,
      "plement": 1016,
      "Kommiss": 1017,
      "off": 1018,
      "view": 1019,
      "sowie": 1020,
      "loy": 1021,
      "weil": 1022,
      "olle": 1023,
      "Gemeinschaft": 1024,
      "lu": 1025,
      "innen": 1026,
      "know": 1027,
      "ask": 1028,
      "mittel": 1029,
      "bie": 1030,
      "zeit": 1031,
      "Bür": 1032,
      "led": 1033,
      "Min": 1034,
      "water": 1035,
      "bewer": 1036,
      "belie": 1037,
      "Herrn": 1038,
      "bal": 1039,
      "ving": 1040,
      "ktion": 1041,
      "weise": 1042,
      "see": 1043,
      "ting": 1044,
      "issue": 1045,
      "question": 1046,
      "debate": 1047,
      "regional": 1048,
      "ordne": 1049,
      "isten": 1050,
      "groß": 1051,
      "geordne": 1052,
      "Land": 1053,
      "great": 1054,
      "environment": 1055,
      "itution": 1056,
      "international": 1057,
      "nat": 1058,
      "app": 1059,
      "fu": 1060,
      "most": 1061,
      "Con": 1062,
      "gest": 1063,
      "rei": 1064,
      "geht": 1065,
      "gehen": 1066,
      "programme": 1067,
      "Kommissar": 1068,
      "di": 1069,
      "those": 1070,
      "ahmen": 1071,
      "cer": 1072,
      "Rahmen": 1073,
      "here": 1074,
      "ame": 1075,
      "Richtlin": 1076,
      "then": 1077,
      "uman": 1078,
      "bst": 1079,
      "dann": 1080,
      "weis": 1081,
      "than": 1082,
      "heute": 1083,
      "many": 1084,
      "ves": 1085,
      "sozial": 1086,
      "Aussch": 1087,
      "denn": 1088,
      "anderen": 1089,
      "less": 1090,
      "ister": 1091,
      "kel": 1092,
      "Umwelt": 1093,
      "sin": 1094,
      "ierungs": 1095,
      "incip": 1096,
      "por": 1097,
      "icher": 1098,
      "det": 1099,
      "areas": 1100,
      "halt": 1101,
      "princip": 1102,
      "brauch": 1103,
      "ism": 1104,
      "oh": 1105,
      "ating": 1106,
      "diesen": 1107,
      "habe": 1108,
      "add": 1109,
      "economic": 1110,
      "lau": 1111,
      "your": 1112,
      "issen": 1113,
      "For": 1114,
      "Jahr": 1115,
      "bereits": 1116,
      "thor": 1117,
      "regard": 1118,
      "right": 1119,
      "stehen": 1120,
      "Mittel": 1121,
      "pen": 1122,
      "finan": 1123,
      "tent": 1124,
      "sagen": 1125,
      "ganz": 1126,
      "rag": 1127,
      "Se": 1128,
      "har": 1129,
      "mach": 1130,
      "last": 1131,
      "dan": 1132,
      "keine": 1133,
      "amend": 1134,
      "think": 1135,
      "schie": 1136,
      "isk": 1137,
      "ustr": 1138,
      "Abgeordne": 1139,
      "employ": 1140,
      "disc": 1141,
      "ordnung": 1142,
      "isl": 1143,
      "believe": 1144,
      "fest": 1145,
      "implement": 1146,
      "abl": 1147,
      "bring": 1148,
      "Maßnahmen": 1149,
      "bess": 1150,
      "unsere": 1151,
      "public": 1152,
      "Änderungs": 1153,
      "mal": 1154,
      "rights": 1155,
      "Rechts": 1156,
      "operation": 1157,
      "cond": 1158,
      "exam": 1159,
      "Them": 1160,
      "ats": 1161,
      "recht": 1162,
      "meine": 1163,
      "tbewer": 1164,
      "erg": 1165,
      "tun": 1166,
      "wohl": 1167,
      "compet": 1168,
      "ready": 1169,
      "darauf": 1170,
      "ough": 1171,
      "want": 1172,
      "icult": 1173,
      "own": 1174,
      "wichtig": 1175,
      "tbewerb": 1176,
      "ual": 1177,
      "tin": 1178,
      "There": 1179,
      "certain": 1180,
      "aid": 1181,
      "wes": 1182,
      "chten": 1183,
      "too": 1184,
      "far": 1185,
      "red": 1186,
      "wieder": 1187,
      "programm": 1188,
      "Al": 1189,
      "real": 1190,
      "ress": 1191,
      "ient": 1192,
      "ised": 1193,
      "transp": 1194,
      "beste": 1195,
      "hn": 1196,
      "chä": 1197,
      "cept": 1198,
      "bene": 1199,
      "matter": 1200,
      "produ": 1201,
      "Koso": 1202,
      "besondere": 1203,
      "government": 1204,
      "mir": 1205,
      "tegr": 1206,
      "olog": 1207,
      "dafür": 1208,
      "Wie": 1209,
      "punkt": 1210,
      "sc": 1211,
      "ors": 1212,
      "ope": 1213,
      "allen": 1214,
      "position": 1215,
      "marke": 1216,
      "agreement": 1217,
      "Ziel": 1218,
      "zwe": 1219,
      "entlich": 1220,
      "proposal": 1221,
      "Stru": 1222,
      "two": 1223,
      "author": 1224,
      "Kollegen": 1225,
      "bin": 1226,
      "process": 1227,
      "does": 1228,
      "appro": 1229,
      "Gebie": 1230,
      "ändern": 1231,
      "spec": 1232,
      "beg": 1233,
      "well": 1234,
      "ktur": 1235,
      "immer": 1236,
      "Parlaments": 1237,
      "possible": 1238,
      "level": 1239,
      "utions": 1240,
      "grund": 1241,
      "Bürger": 1242,
      "situation": 1243,
      "roug": 1244,
      "Committee": 1245,
      "human": 1246,
      "chäft": 1247,
      "bis": 1248,
      "use": 1249,
      "führen": 1250,
      "ile": 1251,
      "set": 1252,
      "area": 1253,
      "Sicher": 1254,
      "dra": 1255,
      "already": 1256,
      "ollen": 1257,
      "legisl": 1258,
      "unserer": 1259,
      "les": 1260,
      "even": 1261,
      "put": 1262,
      "itz": 1263,
      "years": 1264,
      "course": 1265,
      "Kosovo": 1266,
      "Wass": 1267,
      "could": 1268,
      "vom": 1269,
      "satz": 1270,
      "meas": 1271,
      "Richtlinie": 1272,
      "komm": 1273,
      "chn": 1274,
      "prote": 1275,
      "träge": 1276,
      "Ihnen": 1277,
      "sprechen": 1278,
      "amen": 1279,
      "Wet": 1280,
      "antwort": 1281,
      "imin": 1282,
      "Mrs": 1283,
      "währ": 1284,
      "Zu": 1285,
      "luß": 1286,
      "zug": 1287,
      "cannot": 1288,
      "group": 1289,
      "Te": 1290,
      "inn": 1291,
      "strateg": 1292,
      "reichen": 1293,
      "Wettbewerb": 1294,
      "möglich": 1295,
      "large": 1296,
      "action": 1297,
      "tion": 1298,
      "erst": 1299,
      "Finanz": 1300,
      "Da": 1301,
      "fut": 1302,
      "ful": 1303,
      "resol": 1304,
      "lagen": 1305,
      "main": 1306,
      "örder": 1307,
      "directive": 1308,
      "klär": 1309,
      "Haus": 1310,
      "Treat": 1311,
      "regions": 1312,
      "financial": 1313,
      "ory": 1314,
      "said": 1315,
      "nahme": 1316,
      "how": 1317,
      "had": 1318,
      "gestell": 1319,
      "itiz": 1320,
      "adop": 1321,
      "fahr": 1322,
      "formation": 1323,
      "sollten": 1324,
      "setzung": 1325,
      "scheid": 1326,
      "ti": 1327,
      "alth": 1328,
      "okrat": 1329,
      "pra": 1330,
      "low": 1331,
      "ferenz": 1332,
      "sollte": 1333,
      "Hin": 1334,
      "hol": 1335,
      "lage": 1336,
      "selbst": 1337,
      "ihrer": 1338,
      "Politik": 1339,
      "ship": 1340,
      "fahren": 1341,
      "setzen": 1342,
      "Gen": 1343,
      "Im": 1344,
      "piel": 1345,
      "allem": 1346,
      "country": 1347,
      "cl": 1348,
      "politik": 1349,
      "Vorschlag": 1350,
      "spolitik": 1351,
      "future": 1352,
      "citiz": 1353,
      "organ": 1354,
      "common": 1355,
      "Nach": 1356,
      "much": 1357,
      "atte": 1358,
      "still": 1359,
      "genommen": 1360,
      "ulation": 1361,
      "Regionen": 1362,
      "self": 1363,
      "eng": 1364,
      "ference": 1365,
      "increas": 1366,
      "EG": 1367,
      "However": 1368,
      "ele": 1369,
      "ehr": 1370,
      "good": 1371,
      "legal": 1372,
      "ks": 1373,
      "requ": 1374,
      "today": 1375,
      "hap": 1376,
      "gese": 1377,
      "begr": 1378,
      "Wasser": 1379,
      "wn": 1380,
      "stimm": 1381,
      "serv": 1382,
      "Ha": 1383,
      "licher": 1384,
      "industr": 1385,
      "zel": 1386,
      "doch": 1387,
      "ker": 1388,
      "voll": 1389,
      "II": 1390,
      "Tr": 1391,
      "bre": 1392,
      "ös": 1393,
      "üß": 1394,
      "ited": 1395,
      "That": 1396,
      "neuen": 1397,
      "mor": 1398,
      "ine": 1399,
      "conf": 1400,
      "taken": 1401,
      "eral": 1402,
      "itive": 1403,
      "aum": 1404,
      "ischer": 1405,
      "reform": 1406,
      "dazu": 1407,
      "Leben": 1408,
      "nun": 1409,
      "ensure": 1410,
      "rem": 1411,
      "strument": 1412,
      "full": 1413,
      "Wenn": 1414,
      "may": 1415,
      "anges": 1416,
      "contin": 1417,
      "law": 1418,
      "principle": 1419,
      "lungs": 1420,
      "ablish": 1421,
      "his": 1422,
      "hope": 1423,
      "ability": 1424,
      "establish": 1425,
      "policies": 1426,
      "führt": 1427,
      "against": 1428,
      "falls": 1429,
      "discuss": 1430,
      "wollen": 1431,
      "beits": 1432,
      "Recht": 1433,
      "insbesondere": 1434,
      "AD": 1435,
      "ree": 1436,
      "Her": 1437,
      "Ste": 1438,
      "cooperation": 1439,
      "entral": 1440,
      "Mon": 1441,
      "Or": 1442,
      "neue": 1443,
      "problems": 1444,
      "Aust": 1445,
      "lassen": 1446,
      "isierung": 1447,
      "project": 1448,
      "bil": 1449,
      "tal": 1450,
      "uck": 1451,
      "tern": 1452,
      "ürlich": 1453,
      "contr": 1454,
      "achie": 1455,
      "curr": 1456,
      "besser": 1457,
      "democ": 1458,
      "wurden": 1459,
      "invol": 1460,
      "rough": 1461,
      "Dem": 1462,
      "ade": 1463,
      "cent": 1464,
      "hän": 1465,
      "uer": 1466,
      "uring": 1467,
      "aller": 1468,
      "gangen": 1469,
      "ically": 1470,
      "cted": 1471,
      "ga": 1472,
      "zip": 1473,
      "hel": 1474,
      "Inst": 1475,
      "tax": 1476,
      "würde": 1477,
      "market": 1478,
      "Beit": 1479,
      "Sozial": 1480,
      "LE": 1481,
      "Le": 1482,
      "No": 1483,
      "vers": 1484,
      "necess": 1485,
      "Wirtschaft": 1486,
      "glichkeit": 1487,
      "lossen": 1488,
      "competition": 1489,
      "Am": 1490,
      "Mein": 1491,
      "every": 1492,
      "ften": 1493,
      "ho": 1494,
      "num": 1495,
      "measures": 1496,
      "citizens": 1497,
      "initiative": 1498,
      "itions": 1499,
      "issues": 1500,
      "net": 1501,
      "ispiel": 1502,
      "employment": 1503,
      "IN": 1504,
      "acht": 1505,
      "Verein": 1506,
      "liegen": 1507,
      "Arbeits": 1508,
      "both": 1509,
      "ADER": 1510,
      "LEADER": 1511,
      "hä": 1512,
      "ifft": 1513,
      "given": 1514,
      "erstat": 1515,
      "respect": 1516,
      "trifft": 1517,
      "Stand": 1518,
      "ordin": 1519,
      "ban": 1520,
      "ikel": 1521,
      "einige": 1522,
      "Mö": 1523,
      "represent": 1524,
      "bereit": 1525,
      "els": 1526,
      "Fraktion": 1527,
      "Ger": 1528,
      "ack": 1529,
      "jor": 1530,
      "long": 1531,
      "meiner": 1532,
      "ret": 1533,
      "text": 1534,
      "techn": 1535,
      "terms": 1536,
      "particularly": 1537,
      "case": 1538,
      "example": 1539,
      "protection": 1540,
      "ja": 1541,
      "through": 1542,
      "state": 1543,
      "besch": 1544,
      "Fragen": 1545,
      "differ": 1546,
      "ven": 1547,
      "ouse": 1548,
      "major": 1549,
      "interest": 1550,
      "Programm": 1551,
      "high": 1552,
      "why": 1553,
      "Vertrag": 1554,
      "wäre": 1555,
      "Artikel": 1556,
      "machen": 1557,
      "Mad": 1558,
      "give": 1559,
      "klar": 1560,
      "before": 1561,
      "opin": 1562,
      "decision": 1563,
      "programmes": 1564,
      "INT": 1565,
      "Mar": 1566,
      "af": 1567,
      "äß": 1568,
      "worden": 1569,
      "gestellt": 1570,
      "Ta": 1571,
      "gent": 1572,
      "amendments": 1573,
      "Des": 1574,
      "REG": 1575,
      "air": 1576,
      "val": 1577,
      "Berichterstat": 1578,
      "Treaty": 1579,
      "Gro": 1580,
      "inner": 1581,
      "ausge": 1582,
      "sterreich": 1583,
      "Diese": 1584,
      "place": 1585,
      "Probleme": 1586,
      "INTER": 1587,
      "unterstütz": 1588,
      "ritt": 1589,
      "gemeinsam": 1590,
      "INTERREG": 1591,
      "Länder": 1592,
      "licht": 1593,
      "zeich": 1594,
      "tragen": 1595,
      "concerned": 1596,
      "Austri": 1597,
      "gar": 1598,
      "integr": 1599,
      "genda": 1600,
      "struct": 1601,
      "Zusammenarbeit": 1602,
      "aff": 1603,
      "wish": 1604,
      "wissen": 1605,
      "thank": 1606,
      "onds": 1607,
      "vote": 1608,
      "Möglichkeit": 1609,
      "But": 1610,
      "Hand": 1611,
      "acc": 1612,
      "number": 1613,
      "ßer": 1614,
      "äuß": 1615,
      "heiten": 1616,
      "weisen": 1617,
      "Teil": 1618,
      "Berichterstatter": 1619,
      "iele": 1620,
      "Präsidentin": 1621,
      "ior": 1622,
      "sor": 1623,
      "geleg": 1624,
      "teur": 1625,
      "Regierungs": 1626,
      "vention": 1627,
      "Minister": 1628,
      "stär": 1629,
      "mention": 1630,
      "etwas": 1631,
      "agt": 1632,
      "Regierung": 1633,
      "press": 1634,
      "problem": 1635,
      "Fund": 1636,
      "Wer": 1637,
      "fle": 1638,
      "gere": 1639,
      "zahl": 1640,
      "Entscheid": 1641,
      "reason": 1642,
      "necessary": 1643,
      "ian": 1644,
      "öff": 1645,
      "ife": 1646,
      "lobal": 1647,
      "darf": 1648,
      "Menschenre": 1649,
      "Ne": 1650,
      "io": 1651,
      "inzip": 1652,
      "ital": 1653,
      "Deb": 1654,
      "nisse": 1655,
      "ohne": 1656,
      "Madam": 1657,
      "spr": 1658,
      "essen": 1659,
      "world": 1660,
      "sibility": 1661,
      "hö": 1662,
      "hang": 1663,
      "ium": 1664,
      "vö": 1665,
      "ards": 1666,
      "spra": 1667,
      "look": 1668,
      "goti": 1669,
      "sim": 1670,
      "seine": 1671,
      "walt": 1672,
      "schon": 1673,
      "extre": 1674,
      "steht": 1675,
      "accept": 1676,
      "treten": 1677,
      "idency": 1678,
      "Fall": 1679,
      "zun": 1680,
      "ßt": 1681,
      "urther": 1682,
      "negoti": 1683,
      "politischen": 1684,
      "opinion": 1685,
      "10": 1686,
      "cal": 1687,
      "istr": 1688,
      "wert": 1689,
      "letzten": 1690,
      "If": 1691,
      "Was": 1692,
      "akt": 1693,
      "jetzt": 1694,
      "ilfe": 1695,
      "opport": 1696,
      "accoun": 1697,
      "contrib": 1698,
      "kün": 1699,
      "role": 1700,
      "again": 1701,
      "lungen": 1702,
      "contro": 1703,
      "resour": 1704,
      "notwend": 1705,
      "ialog": 1706,
      "Prodi": 1707,
      "instit": 1708,
      "provide": 1709,
      "wendung": 1710,
      "change": 1711,
      "rappor": 1712,
      "Struktur": 1713,
      "require": 1714,
      "rapporteur": 1715,
      "var": 1716,
      "hether": 1717,
      "trans": 1718,
      "means": 1719,
      "cost": 1720,
      "Proje": 1721,
      "lines": 1722,
      "Jahren": 1723,
      "Zusammenhang": 1724,
      "environmental": 1725,
      "Lebens": 1726,
      "ying": 1727,
      "eding": 1728,
      "Verantwort": 1729,
      "shall": 1730,
      "Änderungsan": 1731,
      "Thema": 1732,
      "institutions": 1733,
      "vious": 1734,
      "viele": 1735,
      "Sicherheit": 1736,
      "vour": 1737,
      "seit": 1738,
      "immen": 1739,
      "icle": 1740,
      "commun": 1741,
      "udget": 1742,
      "kun": 1743,
      "Unterstütz": 1744,
      "curity": 1745,
      "House": 1746,
      "zwar": 1747,
      "ents": 1748,
      "soc": 1749,
      "proced": 1750,
      "wards": 1751,
      "lick": 1752,
      "diff": 1753,
      "Ausschuß": 1754,
      "whether": 1755,
      "finden": 1756,
      "statt": 1757,
      "plan": 1758,
      "Staaten": 1759,
      "difficult": 1760,
      "tens": 1761,
      "Bedeut": 1762,
      "andere": 1763,
      "Problem": 1764,
      "since": 1765,
      "Meinung": 1766,
      "einmal": 1767,
      "deal": 1768,
      "gesam": 1769,
      "wirklich": 1770,
      "Unterstützung": 1771,
      "Bedeutung": 1772,
      "cing": 1773,
      "isions": 1774,
      "igten": 1775,
      "sect": 1776,
      "ately": 1777,
      "liegt": 1778,
      "assung": 1779,
      "bestimm": 1780,
      "quality": 1781,
      "-,": 1782,
      "20": 1783,
      "Port": 1784,
      "länd": 1785,
      "Debatte": 1786,
      "He": 1787,
      "Pr": 1788,
      "sign": 1789,
      "enden": 1790,
      "atives": 1791,
      "inclu": 1792,
      "könn": 1793,
      "Rates": 1794,
      "ler": 1795,
      "nationalen": 1796,
      "ücksicht": 1797,
      "stellung": 1798,
      "sozialen": 1799,
      "Is": 1800,
      "van": 1801,
      "gehör": 1802,
      "abil": 1803,
      "lichkeit": 1804,
      "ety": 1805,
      "subject": 1806,
      "Kr": 1807,
      "käm": 1808,
      "edon": 1809,
      "going": 1810,
      "Entschließ": 1811,
      "serious": 1812,
      "Kolleg": 1813,
      "natürlich": 1814,
      "gesehen": 1815,
      "Fe": 1816,
      "alten": 1817,
      "schutz": 1818,
      "next": 1819,
      "Members": 1820,
      "folg": 1821,
      "Beschäft": 1822,
      "Rolle": 1823,
      "nal": 1824,
      "sequ": 1825,
      "ime": 1826,
      "Initiative": 1827,
      "besteht": 1828,
      "Ländern": 1829,
      "Pol": 1830,
      "find": 1831,
      "kten": 1832,
      "inde": 1833,
      "offen": 1834,
      "wier": 1835,
      "neh": 1836,
      "staat": 1837,
      "kunft": 1838,
      "All": 1839,
      "cre": 1840,
      "fach": 1841,
      "ähr": 1842,
      "vorsch": 1843,
      "ffic": 1844,
      "prior": 1845,
      "effect": 1846,
      "Portug": 1847,
      "bau": 1848,
      "hungen": 1849,
      "however": 1850,
      "wär": 1851,
      "promo": 1852,
      "gesetzt": 1853,
      "few": 1854,
      "object": 1855,
      "poin": 1856,
      "konferenz": 1857,
      "ways": 1858,
      "proposals": 1859,
      "zwei": 1860,
      "resolution": 1861,
      "begrüß": 1862,
      "System": 1863,
      "What": 1864,
      "crit": 1865,
      "einge": 1866,
      "sehen": 1867,
      "ilfen": 1868,
      "prochen": 1869,
      "grö": 1870,
      "without": 1871,
      "folgen": 1872,
      "frame": 1873,
      "bringen": 1874,
      "current": 1875,
      "Institution": 1876,
      "fonds": 1877,
      "uro": 1878,
      "gegeben": 1879,
      "follow": 1880,
      "Tages": 1881,
      "account": 1882,
      "resources": 1883,
      "done": 1884,
      "ende": 1885,
      "ieden": 1886,
      "deren": 1887,
      "ential": 1888,
      "verständ": 1889,
      "kehr": 1890,
      "ible": 1891,
      "daran": 1892,
      "positive": 1893,
      "lim": 1894,
      "osed": 1895,
      "ss": 1896,
      "ativen": 1897,
      "gew": 1898,
      "Reform": 1899,
      "suc": 1900,
      "making": 1901,
      "Deshalb": 1902,
      "Aber": 1903,
      "esen": 1904,
      "itä": 1905,
      "entlichen": 1906,
      "edom": 1907,
      "favour": 1908,
      "finanz": 1909,
      "Article": 1910,
      "different": 1911,
      "Situation": 1912,
      "back": 1913,
      "cult": 1914,
      "kur": 1915,
      "ante": 1916,
      "offe": 1917,
      "ict": 1918,
      "half": 1919,
      "whole": 1920,
      "usses": 1921,
      "Punkt": 1922,
      "fety": 1923,
      "ihren": 1924,
      "jo": 1925,
      "nor": 1926,
      "security": 1927,
      "zeß": 1928,
      "safety": 1929,
      "Disk": 1930,
      "jen": 1931,
      "ätz": 1932,
      "towards": 1933,
      "ices": 1934,
      "spräsident": 1935,
      "Regierungskonferenz": 1936,
      "UR": 1937,
      "gut": 1938,
      "ply": 1939,
      "einzel": 1940,
      "manage": 1941,
      "proposed": 1942,
      "frage": 1943,
      "legislation": 1944,
      "dür": 1945,
      "ef": 1946,
      "angen": 1947,
      "Vorschlä": 1948,
      "specific": 1949,
      "help": 1950,
      "after": 1951,
      "glau": 1952,
      "mill": 1953,
      "ency": 1954,
      "itt": 1955,
      "betrifft": 1956,
      "defin": 1957,
      "daher": 1958,
      "antrag": 1959,
      "fully": 1960,
      "12": 1961,
      "iar": 1962,
      "lker": 1963,
      "reco": 1964,
      "redu": 1965,
      "second": 1966,
      "heits": 1967,
      "access": 1968,
      "Kontro": 1969,
      "druck": 1970,
      "ächst": 1971,
      "extreme": 1972,
      "framework": 1973,
      "Best": 1974,
      "Char": 1975,
      "elt": 1976,
      "sid": 1977,
      "reif": 1978,
      "Welt": 1979,
      "streng": 1980,
      "Erweiter": 1981,
      "europäische": 1982,
      "führung": 1983,
      "effective": 1984,
      "control": 1985,
      "BA": 1986,
      "vis": 1987,
      "enlarge": 1988,
      "Ansicht": 1989,
      "down": 1990,
      "selves": 1991,
      "Ebene": 1992,
      "iod": 1993,
      "näm": 1994,
      "impro": 1995,
      "davon": 1996,
      "prom": 1997,
      "ules": 1998,
      "quite": 1999,
      "local": 2000,
      "darüber": 2001,
      "ward": 2002,
      "Tagesordnung": 2003,
      "nämlich": 2004,
      "Mill": 2005,
      "On": 2006,
      "att": 2007,
      "leicht": 2008,
      "zusam": 2009,
      "Verhand": 2010,
      "projects": 2011,
      "Group": 2012,
      "objectives": 2013,
      "Durch": 2014,
      "Lös": 2015,
      "budget": 2016,
      "ument": 2017,
      "ys": 2018,
      "bezie": 2019,
      "demokrat": 2020,
      "exper": 2021,
      "immt": 2022,
      "stellt": 2023,
      "häng": 2024,
      "Br": 2025,
      "Zust": 2026,
      "bt": 2027,
      "kes": 2028,
      "bezug": 2029,
      "ache": 2030,
      "mög": 2031,
      "markt": 2032,
      "gegenüber": 2033,
      "Fl": 2034,
      "Ziele": 2035,
      "further": 2036,
      "rif": 2037,
      "halts": 2038,
      "something": 2039,
      "kommt": 2040,
      "stimmung": 2041,
      "cap": 2042,
      "äd": 2043,
      "omen": 2044,
      "meet": 2045,
      "Beih": 2046,
      "handelt": 2047,
      "transpar": 2048,
      "URBA": 2049,
      "URBAN": 2050,
      "Chin": 2051,
      "ace": 2052,
      "key": 2053,
      "State": 2054,
      "Ausspra": 2055,
      "prü": 2056,
      "Entwicklungs": 2057,
      "responsibility": 2058,
      "erforder": 2059,
      "information": 2060,
      "itor": 2061,
      "Und": 2062,
      "zeug": 2063,
      "comple": 2064,
      "approp": 2065,
      "zurück": 2066,
      "guide": 2067,
      "Steuer": 2068,
      "Änderungsanträge": 2069,
      "appropri": 2070,
      "gung": 2071,
      "lang": 2072,
      "used": 2073,
      "ird": 2074,
      "gesagt": 2075,
      "halte": 2076,
      "carr": 2077,
      "applic": 2078,
      "Abgeordneten": 2079,
      "Standpunkt": 2080,
      "zusammen": 2081,
      "näch": 2082,
      "pend": 2083,
      "sm": 2084,
      "außer": 2085,
      "ilt": 2086,
      "ahre": 2087,
      "Förder": 2088,
      "Gleich": 2089,
      "Pl": 2090,
      "Österreich": 2091,
      "ichts": 2092,
      "rather": 2093,
      "ienst": 2094,
      "pract": 2095,
      "airs": 2096,
      "various": 2097,
      "av": 2098,
      "bu": 2099,
      "gaben": 2100,
      "ising": 2101,
      "konk": 2102,
      "basis": 2103,
      "approach": 2104,
      "adopted": 2105,
      "Kolleginnen": 2106,
      "Erweiterung": 2107,
      "Aussprache": 2108,
      "AL": 2109,
      "each": 2110,
      "rän": 2111,
      "espe": 2112,
      "entwi": 2113,
      "raft": 2114,
      "Presidency": 2115,
      "Wettbewerbs": 2116,
      "entwic": 2117,
      "Auß": 2118,
      "Lage": 2119,
      "gern": 2120,
      "reit": 2121,
      "bez": 2122,
      "denken": 2123,
      "racht": 2124,
      "berücksicht": 2125,
      "schaften": 2126,
      "jective": 2127,
      "Schutz": 2128,
      "proper": 2129,
      "Transp": 2130,
      "agenda": 2131,
      "ually": 2132,
      "unde": 2133,
      "star": 2134,
      "icial": 2135,
      "ierten": 2136,
      "igkeiten": 2137,
      "Unternehmen": 2138,
      "Organ": 2139,
      "Verantwortung": 2140,
      "riften": 2141,
      "seiner": 2142,
      "unt": 2143,
      "atten": 2144,
      "amental": 2145,
      "schaffen": 2146,
      "prec": 2147,
      "politische": 2148,
      "statement": 2149,
      "Institutionen": 2150,
      "15": 2151,
      "ale": 2152,
      "werde": 2153,
      "essential": 2154,
      "move": 2155,
      "Ergeb": 2156,
      "Programme": 2157,
      "effor": 2158,
      "Wh": 2159,
      "eig": 2160,
      "uf": 2161,
      "ichte": 2162,
      "verschie": 2163,
      "mend": 2164,
      "coming": 2165,
      "kannt": 2166,
      "working": 2167,
      "teilung": 2168,
      "importance": 2169,
      "welche": 2170,
      "unterstützen": 2171,
      "Bar": 2172,
      "IF": 2173,
      "Jahre": 2174,
      "Leit": 2175,
      "Nat": 2176,
      "clo": 2177,
      "eigen": 2178,
      "lus": 2179,
      "life": 2180,
      "ert": 2181,
      "ared": 2182,
      "step": 2183,
      "food": 2184,
      "ultur": 2185,
      "direct": 2186,
      "democrat": 2187,
      "gelegt": 2188,
      "Menschenrechte": 2189,
      "Euro": 2190,
      "Qu": 2191,
      "TO": 2192,
      "zept": 2193,
      "waren": 2194,
      "internal": 2195,
      "cially": 2196,
      "period": 2197,
      "clearly": 2198,
      "governmental": 2199,
      "achieve": 2200,
      "bind": 2201,
      "cor": 2202,
      "kle": 2203,
      "start": 2204,
      "stimmen": 2205,
      "wiesen": 2206,
      "gend": 2207,
      "ists": 2208,
      "idar": 2209,
      "Europas": 2210,
      "allow": 2211,
      "aussch": 2212,
      "unseren": 2213,
      "scheiden": 2214,
      "welcome": 2215,
      "pfung": 2216,
      "während": 2217,
      "Just": 2218,
      "LIF": 2219,
      "dung": 2220,
      "global": 2221,
      "ko": 2222,
      "enth": 2223,
      "refer": 2224,
      "leit": 2225,
      "unden": 2226,
      "genau": 2227,
      "sour": 2228,
      "Behör": 2229,
      "zeu": 2230,
      "Ant": 2231,
      "ielen": 2232,
      "hervor": 2233,
      "linien": 2234,
      "commit": 2235,
      "EUR": 2236,
      "LIFE": 2237,
      "Namen": 2238,
      "aw": 2239,
      "ail": 2240,
      "blick": 2241,
      "open": 2242,
      "lack": 2243,
      "understand": 2244,
      "fragen": 2245,
      "Em": 2246,
      "Mo": 2247,
      "Wor": 2248,
      "during": 2249,
      "ktionen": 2250,
      "institution": 2251,
      "sterdam": 2252,
      "wirtschaftlichen": 2253,
      "Amsterdam": 2254,
      "accord": 2255,
      "enlargement": 2256,
      "guidelines": 2257,
      "vier": 2258,
      "gether": 2259,
      "freedom": 2260,
      "ika": 2261,
      "fäh": 2262,
      "Ch": 2263,
      "Fre": 2264,
      "SE": 2265,
      "Seit": 2266,
      "med": 2267,
      "nie": 2268,
      "rules": 2269,
      "zweit": 2270,
      "instrument": 2271,
      "forward": 2272,
      "rachten": 2273,
      "comes": 2274,
      "region": 2275,
      "ätze": 2276,
      "speak": 2277,
      "sichtlich": 2278,
      "concerns": 2279,
      "danken": 2280,
      "negotiations": 2281,
      "especially": 2282,
      "prä": 2283,
      "itself": 2284,
      "alen": 2285,
      "general": 2286,
      "peace": 2287,
      "000": 2288,
      "Erklär": 2289,
      "power": 2290,
      "line": 2291,
      "Präsidentschaft": 2292,
      "besonders": 2293,
      "greater": 2294,
      "authorities": 2295,
      "First": 2296,
      "Vol": 2297,
      "aim": 2298,
      "ahr": 2299,
      "jud": 2300,
      "risk": 2301,
      "behalf": 2302,
      "together": 2303,
      "geführt": 2304,
      "ication": 2305,
      "ivil": 2306,
      "regul": 2307,
      "Ausdruck": 2308,
      "agree": 2309,
      "dings": 2310,
      "ismus": 2311,
      "Zukunft": 2312,
      "glaube": 2313,
      "A5": 2314,
      "Wo": 2315,
      "ogen": 2316,
      "wach": 2317,
      "inno": 2318,
      "bede": 2319,
      "United": 2320,
      "Beihilfen": 2321,
      "fassen": 2322,
      "rural": 2323,
      "once": 2324,
      "ances": 2325,
      "arante": 2326,
      "taking": 2327,
      "And": 2328,
      "crimin": 2329,
      "unkte": 2330,
      "reach": 2331,
      "having": 2332,
      "coher": 2333,
      "These": 2334,
      "Weise": 2335,
      "legenheit": 2336,
      "tellung": 2337,
      "Conference": 2338,
      "recog": 2339,
      "gress": 2340,
      "atast": 2341,
      "ably": 2342,
      "gricult": 2343,
      "nichts": 2344,
      "Herren": 2345,
      "Region": 2346,
      "arbeiten": 2347,
      "certainly": 2348,
      "industry": 2349,
      "success": 2350,
      "atastrop": 2351,
      "Amend": 2352,
      "förder": 2353,
      "hät": 2354,
      "dabei": 2355,
      "committee": 2356,
      "guarante": 2357,
      "großen": 2358,
      "gabe": 2359,
      "kurz": 2360,
      "improve": 2361,
      "aware": 2362,
      "Tur": 2363,
      "colle": 2364,
      "sweise": 2365,
      "wün": 2366,
      "erken": 2367,
      "recent": 2368,
      "abhäng": 2369,
      "result": 2370,
      "sollen": 2371,
      "kontro": 2372,
      "Umsetzung": 2373,
      "geschlossen": 2374,
      "fähr": 2375,
      "implementation": 2376,
      "künft": 2377,
      "Stellung": 2378,
      "iation": 2379,
      "inten": 2380,
      "entsprechen": 2381,
      "leben": 2382,
      "trau": 2383,
      "bereich": 2384,
      "opportunity": 2385,
      "Bem": 2386,
      "Binnen": 2387,
      "Me": 2388,
      "women": 2389,
      "least": 2390,
      "einzu": 2391,
      "einigen": 2392,
      "amb": 2393,
      "term": 2394,
      "health": 2395,
      "grenz": 2396,
      "express": 2397,
      "Kosten": 2398,
      "kämpfung": 2399,
      "extremely": 2400,
      "EQ": 2401,
      "Frei": 2402,
      "UAL": 2403,
      "Wi": 2404,
      "kind": 2405,
      "yet": 2406,
      "three": 2407,
      "schließlich": 2408,
      "conditions": 2409,
      "Austria": 2410,
      "notwendig": 2411,
      "sector": 2412,
      "EQUAL": 2413,
      "Kom": 2414,
      "Sub": 2415,
      "dort": 2416,
      "hoffe": 2417,
      "ru": 2418,
      "erreichen": 2419,
      "tei": 2420,
      "ationen": 2421,
      "ctions": 2422,
      "itiken": 2423,
      "Anwendung": 2424,
      "darum": 2425,
      "trade": 2426,
      "Frauen": 2427,
      "solche": 2428,
      "Besch": 2429,
      "pay": 2430,
      "continue": 2431,
      "innerhalb": 2432,
      "Kultur": 2433,
      "Res": 2434,
      "hau": 2435,
      "kein": 2436,
      "light": 2437,
      "intro": 2438,
      "ief": 2439,
      "alk": 2440,
      "bed": 2441,
      "force": 2442,
      "ierungen": 2443,
      "prevent": 2444,
      "needs": 2445,
      "uding": 2446,
      "ought": 2447,
      "Gebiet": 2448,
      "einzelnen": 2449,
      "Vorschläge": 2450,
      "introdu": 2451,
      "19": 2452,
      "Ihr": 2453,
      "border": 2454,
      "ehmen": 2455,
      "lauf": 2456,
      "übr": 2457,
      "ersten": 2458,
      "always": 2459,
      "entscheiden": 2460,
      "ged": 2461,
      "const": 2462,
      "Verbrauch": 2463,
      "ience": 2464,
      "folgt": 2465,
      "subst": 2466,
      "zeitig": 2467,
      "Haushalts": 2468,
      "völker": 2469,
      "million": 2470,
      "Lösung": 2471,
      "Leitlinien": 2472,
      "Hau": 2473,
      "job": 2474,
      "oren": 2475,
      "leisten": 2476,
      "beding": 2477,
      "sei": 2478,
      "schein": 2479,
      "llschaft": 2480,
      "Ind": 2481,
      "Ausschusses": 2482,
      "mentioned": 2483,
      "Lebensmittel": 2484,
      "Dienst": 2485,
      "did": 2486,
      "hist": 2487,
      "pur": 2488,
      "sur": 2489,
      "ßen": 2490,
      "reicht": 2491,
      "fordern": 2492,
      "spl": 2493,
      "Weg": 2494,
      "words": 2495,
      "Auto": 2496,
      "ground": 2497,
      "teilen": 2498,
      "geschlagen": 2499,
      "raph": 2500,
      "transport": 2501,
      "dürfen": 2502,
      "Fort": 2503,
      "Hier": 2504,
      "bus": 2505,
      "gilt": 2506,
      "ypr": 2507,
      "though": 2508,
      "really": 2509,
      "ified": 2510,
      "ivid": 2511,
      "doc": 2512,
      "darin": 2513,
      "ärenz": 2514,
      "1998": 2515,
      "altung": 2516,
      "Hinblick": 2517,
      "Strukturfonds": 2518,
      "Verhandlungen": 2519,
      "50": 2520,
      "You": 2521,
      "drei": 2522,
      "wegen": 2523,
      "schwer": 2524,
      "Beispiel": 2525,
      "economy": 2526,
      "große": 2527,
      "wärt": 2528,
      "nächsten": 2529,
      "Den": 2530,
      "Dar": 2531,
      "cen": 2532,
      "creat": 2533,
      "kung": 2534,
      "ren": 2535,
      "uese": 2536,
      "another": 2537,
      "derzeit": 2538,
      "lead": 2539,
      "ierte": 2540,
      "Verwalt": 2541,
      "demand": 2542,
      "ritte": 2543,
      "justice": 2544,
      "questions": 2545,
      "brauchen": 2546,
      "affung": 2547,
      "könnte": 2548,
      "fficient": 2549,
      "Portuguese": 2550,
      "Damen": 2551,
      "Mal": 2552,
      "Mehr": 2553,
      "dou": 2554,
      "fit": 2555,
      "luding": 2556,
      "theless": 2557,
      "cts": 2558,
      "admin": 2559,
      "Ange": 2560,
      "Abstimmung": 2561,
      "better": 2562,
      "month": 2563,
      "sicherheit": 2564,
      "groups": 2565,
      "involved": 2566,
      "hält": 2567,
      "itäten": 2568,
      "small": 2569,
      "AC": 2570,
      "Fol": 2571,
      "call": 2572,
      "iness": 2573,
      "inform": 2574,
      "chan": 2575,
      "leist": 2576,
      "absol": 2577,
      "exist": 2578,
      "gerade": 2579,
      "answer": 2580,
      "invest": 2581,
      "Änderungsantrag": 2582,
      "China": 2583,
      "fang": 2584,
      "ix": 2585,
      "seits": 2586,
      "progress": 2587,
      "Vertre": 2588,
      "Bevölker": 2589,
      "stain": 2590,
      "assist": 2591,
      "Regional": 2592,
      "1997": 2593,
      "relation": 2594,
      "addition": 2595,
      "Haider": 2596,
      "flex": 2597,
      "management": 2598,
      "democratic": 2599,
      "13": 2600,
      "Zwe": 2601,
      "mut": 2602,
      "task": 2603,
      "rece": 2604,
      "urn": 2605,
      "seem": 2606,
      "sowohl": 2607,
      "Regel": 2608,
      "Stra": 2609,
      "beiden": 2610,
      "Schaffung": 2611,
      "Frieden": 2612,
      "Social": 2613,
      "idence": 2614,
      "General": 2615,
      "ländlichen": 2616,
      "Förderung": 2617,
      "hes": 2618,
      "ily": 2619,
      "mals": 2620,
      "energ": 2621,
      "ants": 2622,
      "attent": 2623,
      "einfach": 2624,
      "deshalb": 2625,
      "grif": 2626,
      "grup": 2627,
      "portug": 2628,
      "They": 2629,
      "appe": 2630,
      "feel": 2631,
      "eln": 2632,
      "special": 2633,
      "Auch": 2634,
      "wichtige": 2635,
      "danger": 2636,
      "Wieder": 2637,
      "organis": 2638,
      "Demokrat": 2639,
      "konkre": 2640,
      "portugies": 2641,
      "Nor": 2642,
      "To": 2643,
      "ep": 2644,
      "pop": 2645,
      "sitz": 2646,
      "ences": 2647,
      "char": 2648,
      "anzu": 2649,
      "beispiel": 2650,
      "gefähr": 2651,
      "oment": 2652,
      "Instrument": 2653,
      "person": 2654,
      "wurf": 2655,
      "gemeinschaft": 2656,
      "Abgeordnete": 2657,
      "interests": 2658,
      "Isra": 2659,
      "administr": 2660,
      "At": 2661,
      "CO": 2662,
      "Erachten": 2663,
      "Li": 2664,
      "treat": 2665,
      "ufact": 2666,
      "erwä": 2667,
      "initi": 2668,
      "esse": 2669,
      "manufact": 2670,
      "ension": 2671,
      "hinaus": 2672,
      "hinsichtlich": 2673,
      "conclus": 2674,
      "activ": 2675,
      "bestehen": 2676,
      "übrigen": 2677,
      "Erachtens": 2678,
      "Hilfe": 2679,
      "Sol": 2680,
      "onstr": 2681,
      "ingen": 2682,
      "racy": 2683,
      "dessen": 2684,
      "grat": 2685,
      "Part": 2686,
      "vorgeschlagen": 2687,
      "merk": 2688,
      "draft": 2689,
      "procedure": 2690,
      "points": 2691,
      "Rück": 2692,
      "affe": 2693,
      "four": 2694,
      "wuß": 2695,
      "third": 2696,
      "ises": 2697,
      "lemen": 2698,
      "become": 2699,
      "aspect": 2700,
      "eindeut": 2701,
      "del": 2702,
      "while": 2703,
      "exp": 2704,
      "aper": 2705,
      "Eine": 2706,
      "pleas": 2707,
      "Binnenmarkt": 2708,
      "Aspe": 2709,
      "meines": 2710,
      "isen": 2711,
      "beim": 2712,
      "versch": 2713,
      "dest": 2714,
      "coordin": 2715,
      "Ende": 2716,
      "ugos": 2717,
      "hlen": 2718,
      "Ratspräsident": 2719,
      "based": 2720,
      "wenig": 2721,
      "funds": 2722,
      "Kommissarin": 2723,
      "gentlemen": 2724,
      "Funds": 2725,
      "Millionen": 2726,
      "business": 2727,
      "Balk": 2728,
      "My": 2729,
      "Not": 2730,
      "gra": 2731,
      "hung": 2732,
      "ctural": 2733,
      "vorgesehen": 2734,
      "Bezie": 2735,
      "parliament": 2736,
      "Auswirk": 2737,
      "objective": 2738,
      "including": 2739,
      "disast": 2740,
      "previous": 2741,
      "ebenfalls": 2742,
      "fordert": 2743,
      "Ihre": 2744,
      "Structural": 2745,
      "avail": 2746,
      "Cour": 2747,
      "care": 2748,
      "ont": 2749,
      "let": 2750,
      "sec": 2751,
      "irm": 2752,
      "Bei": 2753,
      "consum": 2754,
      "gegenwärt": 2755,
      "decisions": 2756,
      "particip": 2757,
      "fundamental": 2758,
      "apply": 2759,
      "strategy": 2760,
      "gemeinsamen": 2761,
      "Aff": 2762,
      "NA": 2763,
      "Raum": 2764,
      "Sin": 2765,
      "Sitz": 2766,
      "Ur": 2767,
      "bour": 2768,
      "lück": 2769,
      "onen": 2770,
      "ders": 2771,
      "context": 2772,
      "individ": 2773,
      "Energ": 2774,
      "deutlich": 2775,
      "größ": 2776,
      "Diskuss": 2777,
      "beispielsweise": 2778,
      "Sy": 2779,
      "Wahl": 2780,
      "bro": 2781,
      "mone": 2782,
      "member": 2783,
      "iety": 2784,
      "gewähr": 2785,
      "igungs": 2786,
      "verfahren": 2787,
      "llig": 2788,
      "genann": 2789,
      "partner": 2790,
      "systems": 2791,
      "neuer": 2792,
      "soziale": 2793,
      "Themen": 2794,
      "indeed": 2795,
      "create": 2796,
      "vi": 2797,
      "ining": 2798,
      "schwier": 2799,
      "Stabil": 2800,
      "Grün": 2801,
      "gemäß": 2802,
      "Finally": 2803,
      "responsible": 2804,
      "draw": 2805,
      "ialogue": 2806,
      "Court": 2807,
      "Cypr": 2808,
      "Go": 2809,
      "eh": 2810,
      "fte": 2811,
      "ither": 2812,
      "mäß": 2813,
      "table": 2814,
      "erhalten": 2815,
      "constru": 2816,
      "ify": 2817,
      "Rechte": 2818,
      "prinzip": 2819,
      "ihnen": 2820,
      "Intergovernmental": 2821,
      "richtung": 2822,
      "hnt": 2823,
      "Vertrags": 2824,
      "reifen": 2825,
      "Freiheit": 2826,
      "attention": 2827,
      "gratul": 2828,
      "Auswirkungen": 2829,
      "14": 2830,
      "25": 2831,
      "Man": 2832,
      "härenz": 2833,
      "mb": 2834,
      "zentr": 2835,
      "ße": 2836,
      "urs": 2837,
      "mean": 2838,
      "alles": 2839,
      "Bekämpfung": 2840,
      "Kohärenz": 2841,
      "concerning": 2842,
      "Landwirtschaft": 2843,
      "entwickel": 2844,
      "Ex": 2845,
      "UN": 2846,
      "Wort": 2847,
      "dialogue": 2848,
      "mult": 2849,
      "ods": 2850,
      "sing": 2851,
      "ield": 2852,
      "leis": 2853,
      "einz": 2854,
      "Information": 2855,
      "priv": 2856,
      "findet": 2857,
      "Auff": 2858,
      "gebracht": 2859,
      "play": 2860,
      "sidiar": 2861,
      "coherence": 2862,
      "money": 2863,
      "eth": 2864,
      "län": 2865,
      "raum": 2866,
      "enter": 2867,
      "weiß": 2868,
      "wahr": 2869,
      "ebenso": 2870,
      "Grundlage": 2871,
      "Strateg": 2872,
      "matters": 2873,
      "increase": 2874,
      "happen": 2875,
      "zunehmen": 2876,
      "Projekte": 2877,
      "Beding": 2878,
      "Ob": 2879,
      "Pos": 2880,
      "kr": 2881,
      "mind": 2882,
      "yl": 2883,
      "zedon": 2884,
      "sto": 2885,
      "einander": 2886,
      "iges": 2887,
      "ilit": 2888,
      "aufge": 2889,
      "Verfahren": 2890,
      "mitt": 2891,
      "cover": 2892,
      "standards": 2893,
      "services": 2894,
      "Beitrag": 2895,
      "Beschäftigung": 2896,
      "Emp": 2897,
      "available": 2898,
      "Affairs": 2899,
      "NATO": 2900,
      "Mac": 2901,
      "Sp": 2902,
      "agricult": 2903,
      "bzw": 2904,
      "kom": 2905,
      "sätz": 2906,
      "often": 2907,
      "denke": 2908,
      "imp": 2909,
      "ick": 2910,
      "demonstr": 2911,
      "relations": 2912,
      "ification": 2913,
      "pflicht": 2914,
      "breit": 2915,
      "Gericht": 2916,
      "Markt": 2917,
      "communication": 2918,
      "Entschließung": 2919,
      "transparency": 2920,
      "Verbraucher": 2921,
      "Dam": 2922,
      "might": 2923,
      "past": 2924,
      "vic": 2925,
      "yp": 2926,
      "erklär": 2927,
      "iellen": 2928,
      "row": 2929,
      "ross": 2930,
      "ragen": 2931,
      "aufgrund": 2932,
      "Verbesser": 2933,
      "ktiv": 2934,
      "ladies": 2935,
      "sustain": 2936,
      "ffiz": 2937,
      "lok": 2938,
      "Abkommen": 2939,
      "Grenz": 2940,
      "ihm": 2941,
      "cycl": 2942,
      "unktion": 2943,
      "actually": 2944,
      "Gesund": 2945,
      "morgen": 2946,
      "appropriate": 2947,
      "buil": 2948,
      "efforts": 2949,
      "With": 2950,
      "single": 2951,
      "Dank": 2952,
      "OL": 2953,
      "bit": 2954,
      "challen": 2955,
      "onger": 2956,
      "tem": 2957,
      "weg": 2958,
      "short": 2959,
      "fün": 2960,
      "betre": 2961,
      "akzept": 2962,
      "internationalen": 2963,
      "Kontrolle": 2964,
      "Transpar": 2965,
      "Antwort": 2966,
      "energy": 2967,
      "Govern": 2968,
      "erster": 2969,
      "stu": 2970,
      "lea": 2971,
      "bewuß": 2972,
      "deta": 2973,
      "schied": 2974,
      "vorliegen": 2975,
      "ibility": 2976,
      "utet": 2977,
      "struktur": 2978,
      "gemacht": 2979,
      "monitor": 2980,
      "increasing": 2981,
      "following": 2982,
      "möglichen": 2983,
      "verschiedenen": 2984,
      "Dire": 2985,
      "Dialog": 2986,
      "Rights": 2987,
      "sy": 2988,
      "uni": 2989,
      "bel": 2990,
      "wider": 2991,
      "igr": 2992,
      "ics": 2993,
      "gener": 2994,
      "allgem": 2995,
      "ifiz": 2996,
      "suchen": 2997,
      "vorzu": 2998,
      "Aufgabe": 2999,
      "majority": 3000,
      "values": 3001,
      "Entscheidung": 3002,
      "gehört": 3003,
      "Beziehungen": 3004,
      "Transparenz": 3005,
      "Government": 3006,
      "..": 3007,
      "Off": 3008,
      "field": 3009,
      "hon": 3010,
      "iben": 3011,
      "ning": 3012,
      "seinen": 3013,
      "amp": 3014,
      "icles": 3015,
      "fortun": 3016,
      "ourselves": 3017,
      "hatte": 3018,
      "upon": 3019,
      "trad": 3020,
      "free": 3021,
      "authority": 3022,
      "Wirtschafts": 3023,
      "verständlich": 3024,
      "erforderlich": 3025,
      "Erklärung": 3026,
      "months": 3027,
      "hesion": 3028,
      "cycling": 3029,
      "Forder": 3030,
      "Tats": 3031,
      "bur": 3032,
      "vision": 3033,
      "restr": 3034,
      "ived": 3035,
      "ielle": 3036,
      "schließend": 3037,
      "things": 3038,
      "vielen": 3039,
      "weniger": 3040,
      "regarding": 3041,
      "allerdings": 3042,
      "gangenen": 3043,
      "precise": 3044,
      "manufactur": 3045,
      "gute": 3046,
      "enough": 3047,
      "anim": 3048,
      "rele": 3049,
      "stens": 3050,
      "roffen": 3051,
      "auer": 3052,
      "head": 3053,
      "lik": 3054,
      "Kommissions": 3055,
      "jeden": 3056,
      "üssel": 3057,
      "rior": 3058,
      "mark": 3059,
      "ziehen": 3060,
      "emphas": 3061,
      "governments": 3062,
      "principles": 3063,
      "joint": 3064,
      "klein": 3065,
      "Demokratie": 3066,
      "Partner": 3067,
      "AR": 3068,
      "ever": 3069,
      "fl": 3070,
      "five": 3071,
      "keinen": 3072,
      "länder": 3073,
      "uten": 3074,
      "anal": 3075,
      "arr": 3076,
      "among": 3077,
      "doing": 3078,
      "idea": 3079,
      "actions": 3080,
      "legislative": 3081,
      "zunächst": 3082,
      "):": 3083,
      "Pal": 3084,
      "Tob": 3085,
      "hend": 3086,
      "kut": 3087,
      "meinen": 3088,
      "non": 3089,
      "zentral": 3090,
      "bekannt": 3091,
      "show": 3092,
      "fert": 3093,
      "ritts": 3094,
      "Mazedon": 3095,
      "compan": 3096,
      "Jahres": 3097,
      "democracy": 3098,
      "simply": 3099,
      "complete": 3100,
      "close": 3101,
      "Office": 3102,
      "Tobin": 3103,
      "Fä": 3104,
      "Hels": 3105,
      "Tür": 3106,
      "Währ": 3107,
      "pass": 3108,
      "sum": 3109,
      "sag": 3110,
      "ton": 3111,
      "tes": 3112,
      "wee": 3113,
      "nothing": 3114,
      "neg": 3115,
      "sug": 3116,
      "Partei": 3117,
      "expect": 3118,
      "Schluß": 3119,
      "samen": 3120,
      "inki": 3121,
      "forderungen": 3122,
      "ständig": 3123,
      "cars": 3124,
      "Als": 3125,
      "organisation": 3126,
      "äußerst": 3127,
      "colleag": 3128,
      "Helsinki": 3129,
      "Prior": 3130,
      "eded": 3131,
      "ness": 3132,
      "erste": 3133,
      "regel": 3134,
      "states": 3135,
      "schne": 3136,
      "imension": 3137,
      "heiß": 3138,
      "pressed": 3139,
      "others": 3140,
      "developing": 3141,
      "minister": 3142,
      "utzen": 3143,
      "cases": 3144,
      "bisher": 3145,
      "eigenen": 3146,
      "Bedingungen": 3147,
      "Sel": 3148,
      "active": 3149,
      "för": 3150,
      "Öff": 3151,
      "encour": 3152,
      "angenommen": 3153,
      "lei": 3154,
      "verantwort": 3155,
      "heb": 3156,
      "never": 3157,
      "isches": 3158,
      "shof": 3159,
      "sens": 3160,
      "regulation": 3161,
      "posed": 3162,
      "ulture": 3163,
      "ided": 3164,
      "Gesetz": 3165,
      "Form": 3166,
      "although": 3167,
      "structure": 3168,
      "initiatives": 3169,
      "Mazedonien": 3170,
      "30": 3171,
      "Sicht": 3172,
      "hnen": 3173,
      "erinn": 3174,
      "stra": 3175,
      "vertreten": 3176,
      "prozeß": 3177,
      "resul": 3178,
      "trie": 3179,
      "exce": 3180,
      "face": 3181,
      "jeder": 3182,
      "gang": 3183,
      "Interessen": 3184,
      "society": 3185,
      "sequent": 3186,
      "Fortsch": 3187,
      "Auffassung": 3188,
      "ypern": 3189,
      "Ser": 3190,
      "Secon": 3191,
      "blo": 3192,
      "name": 3193,
      "ph": 3194,
      "vol": 3195,
      "üt": 3196,
      "gewä": 3197,
      "amo": 3198,
      "outh": 3199,
      "contain": 3200,
      "gesprochen": 3201,
      "warten": 3202,
      "Schif": 3203,
      "weitere": 3204,
      "pers": 3205,
      "bru": 3206,
      "intent": 3207,
      "drück": 3208,
      "Interesse": 3209,
      "haps": 3210,
      "conflic": 3211,
      "Febru": 3212,
      "meeting": 3213,
      "Behörden": 3214,
      "regulations": 3215,
      "Bevölkerung": 3216,
      "dangerous": 3217,
      "Israel": 3218,
      "Second": 3219,
      "Bo": 3220,
      "Tex": 3221,
      "Zypern": 3222,
      "clar": 3223,
      "fun": 3224,
      "longer": 3225,
      "erreicht": 3226,
      "cher": 3227,
      "item": 3228,
      "derart": 3229,
      "arge": 3230,
      "verhin": 3231,
      "Vertrau": 3232,
      "Integr": 3233,
      "Party": 3234,
      "iving": 3235,
      "Prozeß": 3236,
      "pose": 3237,
      "assess": 3238,
      "commend": 3239,
      "prep": 3240,
      "konn": 3241,
      "event": 3242,
      "würd": 3243,
      "address": 3244,
      "III": 3245,
      "ausschuß": 3246,
      "merksam": 3247,
      "ugosla": 3248,
      "11": 3249,
      "AK": 3250,
      "him": 3251,
      "zen": 3252,
      "thy": 3253,
      "anu": 3254,
      "remain": 3255,
      "top": 3256,
      "veh": 3257,
      "fort": 3258,
      "sogar": 3259,
      "congratul": 3260,
      "hatten": 3261,
      "Mitteilung": 3262,
      "positi": 3263,
      "diskut": 3264,
      "grow": 3265,
      "solution": 3266,
      "gelten": 3267,
      "aterial": 3268,
      "Bereichen": 3269,
      "würden": 3270,
      "schieden": 3271,
      "Gebiete": 3272,
      "discussion": 3273,
      "acceptable": 3274,
      "costs": 3275,
      "gesamten": 3276,
      "include": 3277,
      "culture": 3278,
      "strengthen": 3279,
      "fünf": 3280,
      "AKP": 3281,
      "24": 3282,
      "Fisch": 3283,
      "Fest": 3284,
      "buch": 3285,
      "dom": 3286,
      "fung": 3287,
      "miss": 3288,
      "enor": 3289,
      "orr": 3290,
      "betra": 3291,
      "aud": 3292,
      "abzu": 3293,
      "beral": 3294,
      "reiche": 3295,
      "solidar": 3296,
      "steller": 3297,
      "regionalen": 3298,
      "wesen": 3299,
      "continu": 3300,
      "öffentlichen": 3301,
      "signific": 3302,
      "Politiken": 3303,
      "nehmer": 3304,
      "promote": 3305,
      "Bestimm": 3306,
      "Stellungnahme": 3307,
      "histor": 3308,
      "ACP": 3309,
      "ethn": 3310,
      "fördern": 3311,
      "80": 3312,
      "AF": 3313,
      "central": 3314,
      "hlt": 3315,
      "indem": 3316,
      "anted": 3317,
      "verb": 3318,
      "Gefahr": 3319,
      "gebie": 3320,
      "weiteren": 3321,
      "gemeinsame": 3322,
      "cru": 3323,
      "Gemeinschafts": 3324,
      "Quest": 3325,
      "Amendment": 3326,
      "partnership": 3327,
      "Cyprus": 3328,
      "leistet": 3329,
      "Macedon": 3330,
      "Dok": 3331,
      "krit": 3332,
      "ench": 3333,
      "erfolg": 3334,
      "bear": 3335,
      "oft": 3336,
      "amt": 3337,
      "verl": 3338,
      "mitglie": 3339,
      "expressed": 3340,
      "Anfrage": 3341,
      "comb": 3342,
      "strong": 3343,
      "bleiben": 3344,
      "vielleicht": 3345,
      "richtig": 3346,
      "sprech": 3347,
      "Überein": 3348,
      "harmon": 3349,
      "gerecht": 3350,
      "accession": 3351,
      "Natur": 3352,
      "sourcen": 3353,
      "Turkey": 3354,
      "Dienstleist": 3355,
      "Strategie": 3356,
      "Damit": 3357,
      "Doch": 3358,
      "Per": 3359,
      "Pers": 3360,
      "Sor": 3361,
      "Zweit": 3362,
      "civil": 3363,
      "dist": 3364,
      "moment": 3365,
      "refu": 3366,
      "entliche": 3367,
      "urban": 3368,
      "wirken": 3369,
      "grün": 3370,
      "Rei": 3371,
      "auszu": 3372,
      "modern": 3373,
      "Geld": 3374,
      "Grup": 3375,
      "anderer": 3376,
      "standen": 3377,
      "schließen": 3378,
      "ihrem": 3379,
      "wenden": 3380,
      "official": 3381,
      "macht": 3382,
      "amendment": 3383,
      "ological": 3384,
      "Heraus": 3385,
      "Austrian": 3386,
      "eigentlich": 3387,
      "innov": 3388,
      "recogn": 3389,
      "Vertreter": 3390,
      "population": 3391,
      "companies": 3392,
      "Afr": 3393,
      "Bil": 3394,
      "EC": 3395,
      "affen": 3396,
      "eas": 3397,
      "fight": 3398,
      "ling": 3399,
      "sat": 3400,
      "request": 3401,
      "old": 3402,
      "llent": 3403,
      "Verfü": 3404,
      "tag": 3405,
      "share": 3406,
      "regards": 3407,
      "party": 3408,
      "Gegen": 3409,
      "betroffen": 3410,
      "läu": 3411,
      "2006": 3412,
      "type": 3413,
      "basic": 3414,
      "lands": 3415,
      "funding": 3416,
      "Gemeinschaftsin": 3417,
      "integration": 3418,
      "carried": 3419,
      "seems": 3420,
      "Notwend": 3421,
      "individual": 3422,
      "Position": 3423,
      ").": 3424,
      "Für": 3425,
      "Zahl": 3426,
      "ec": 3427,
      "turn": 3428,
      "changes": 3429,
      "lement": 3430,
      "assoc": 3431,
      "schluß": 3432,
      "utes": 3433,
      "spol": 3434,
      "Verordnung": 3435,
      "lied": 3436,
      "zehn": 3437,
      "Antrag": 3438,
      "fail": 3439,
      "faßt": 3440,
      "legation": 3441,
      "üsse": 3442,
      "Berichts": 3443,
      "voted": 3444,
      "Vorschriften": 3445,
      "Staats": 3446,
      "getan": 3447,
      "Bürgern": 3448,
      "approved": 3449,
      "remind": 3450,
      "Möglichkeiten": 3451,
      "cultural": 3452,
      "jenigen": 3453,
      "ittle": 3454,
      "Energie": 3455,
      "Verbesserung": 3456,
      "Tatsache": 3457,
      "results": 3458,
      ".)": 3459,
      "C5": 3460,
      "Meine": 3461,
      "Nr": 3462,
      "Nationen": 3463,
      "OM": 3464,
      "Our": 3465,
      "Qual": 3466,
      "Zun": 3467,
      "little": 3468,
      "mis": 3469,
      "mere": 3470,
      "nimmt": 3471,
      "ült": 3472,
      "erdem": 3473,
      "itim": 3474,
      "stress": 3475,
      "tomor": 3476,
      "gewiesen": 3477,
      "zustellen": 3478,
      "hear": 3479,
      "exten": 3480,
      "model": 3481,
      "Wel": 3482,
      "Erfahr": 3483,
      "plann": 3484,
      "Programms": 3485,
      "gleichzeitig": 3486,
      "Vereinbar": 3487,
      "representatives": 3488,
      "contribution": 3489,
      "provided": 3490,
      "staatlichen": 3491,
      "Außerdem": 3492,
      "bezü": 3493,
      "berücksichtigt": 3494,
      "bedeutet": 3495,
      "hätte": 3496,
      "bewußt": 3497,
      "fortunately": 3498,
      "Reihe": 3499,
      "tomorrow": 3500,
      "Paper": 3501,
      "dien": 3502,
      "equ": 3503,
      "mein": 3504,
      "messen": 3505,
      "xim": 3506,
      "stre": 3507,
      "beteil": 3508,
      "sever": 3509,
      "Verkehr": 3510,
      "sense": 3511,
      "itiativen": 3512,
      "Weiß": 3513,
      "fügen": 3514,
      "beschäft": 3515,
      "obvious": 3516,
      "French": 3517,
      "spez": 3518,
      "wobei": 3519,
      "Mitgliedstaat": 3520,
      "Grundsatz": 3521,
      "losigkeit": 3522,
      "Convention": 3523,
      "confidence": 3524,
      "angesichts": 3525,
      "Beitritts": 3526,
      "demokratischen": 3527,
      "enthalten": 3528,
      "fähigkeit": 3529,
      "sustainable": 3530,
      "Selbst": 3531,
      "Ir": 3532,
      "Wider": 3533,
      "Zug": 3534,
      "nt": 3535,
      "ruck": 3536,
      "tats": 3537,
      "öt": 3538,
      "ativ": 3539,
      "ichtet": 3540,
      "kei": 3541,
      "spricht": 3542,
      "Verträge": 3543,
      "Rede": 3544,
      "maßnahmen": 3545,
      "peten": 3546,
      "potent": 3547,
      "ätigkeit": 3548,
      "unternehmen": 3549,
      "Regierungen": 3550,
      "alled": 3551,
      "frü": 3552,
      "Koordin": 3553,
      "handeln": 3554,
      "unserem": 3555,
      "frei": 3556,
      "Dieser": 3557,
      "zeichnet": 3558,
      "spruch": 3559,
      "currently": 3560,
      "prüfen": 3561,
      "document": 3562,
      "eindeutig": 3563,
      "Sitzung": 3564,
      "excellent": 3565,
      "Notwendigkeit": 3566,
      "tatsäch": 3567,
      "IP": 3568,
      "Katastrop": 3569,
      "Lassen": 3570,
      "Patten": 3571,
      "Ti": 3572,
      "ones": 3573,
      "unities": 3574,
      "stability": 3575,
      "rok": 3576,
      "deter": 3577,
      "seen": 3578,
      "imme": 3579,
      "vergen": 3580,
      "soon": 3581,
      "conne": 3582,
      "cohesion": 3583,
      "fair": 3584,
      "worten": 3585,
      "foc": 3586,
      "sels": 3587,
      "Gelegenheit": 3588,
      "plies": 3589,
      "Zeitpunkt": 3590,
      "Alban": 3591,
      "agreements": 3592,
      "Außen": 3593,
      "White": 3594,
      "Bemü": 3595,
      "jobs": 3596,
      "doubt": 3597,
      "OLAF": 3598,
      "Secondly": 3599,
      "Weißbuch": 3600,
      "Fahr": 3601,
      "Gree": 3602,
      "Kenn": 3603,
      "Punkte": 3604,
      "bill": 3605,
      "ech": 3606,
      "ländern": 3607,
      "inge": 3608,
      "teid": 3609,
      "aufgenommen": 3610,
      "umfassen": 3611,
      "zeigt": 3612,
      "unterschied": 3613,
      "Ital": 3614,
      "arbeitung": 3615,
      "wichtigen": 3616,
      "dring": 3617,
      "Entwicklungspolitik": 3618,
      "wirtschaftliche": 3619,
      "publik": 3620,
      "implementing": 3621,
      "structural": 3622,
      "Berichterstatterin": 3623,
      "included": 3624,
      "criter": 3625,
      "application": 3626,
      "berücksichtigen": 3627,
      "absolute": 3628,
      "pleased": 3629,
      "Türkei": 3630,
      "heißt": 3631,
      "Öffentlich": 3632,
      "Verfügung": 3633,
      "21": 3634,
      "Gese": 3635,
      "bare": 3636,
      "bitte": 3637,
      "fli": 3638,
      "som": 3639,
      "wand": 3640,
      "andid": 3641,
      "ters": 3642,
      "ktor": 3643,
      "cks": 3644,
      "ände": 3645,
      "Thank": 3646,
      "nachhalt": 3647,
      "frist": 3648,
      "legenheiten": 3649,
      "solchen": 3650,
      "weiterhin": 3651,
      "utzung": 3652,
      "provisions": 3653,
      "fallen": 3654,
      "implemented": 3655,
      "farm": 3656,
      "Sicherheits": 3657,
      "Dabei": 3658,
      "stärker": 3659,
      "Beschäftigungs": 3660,
      "begrüßen": 3661,
      "precisely": 3662,
      "erinnern": 3663,
      "Dokument": 3664,
      "Kar": 3665,
      "Kap": 3666,
      "Lin": 3667,
      "Nicht": 3668,
      "Sto": 3669,
      "US": 3670,
      "az": 3671,
      "called": 3672,
      "herr": 3673,
      "mand": 3674,
      "nier": 3675,
      "ove": 3676,
      "rang": 3677,
      "sätze": 3678,
      "test": 3679,
      "yes": 3680,
      "erne": 3681,
      "erheb": 3682,
      "ielt": 3683,
      "verein": 3684,
      "keep": 3685,
      "spir": 3686,
      "true": 3687,
      "Verpflicht": 3688,
      "Beteil": 3689,
      "zep": 3690,
      "quo": 3691,
      "ago": 3692,
      "Produ": 3693,
      "Entwurf": 3694,
      "found": 3695,
      "discrimin": 3696,
      "arbeitet": 3697,
      "minor": 3698,
      "gument": 3699,
      "submit": 3700,
      "maintain": 3701,
      "angesprochen": 3702,
      "discussions": 3703,
      "beschrän": 3704,
      "pendent": 3705,
      "Ergebnis": 3706,
      "Volks": 3707,
      "Malta": 3708,
      "activities": 3709,
      "monitoring": 3710,
      "Bestimmungen": 3711,
      "Bet": 3712,
      "Kön": 3713,
      "equal": 3714,
      "lig": 3715,
      "äu": 3716,
      "chter": 3717,
      "unabhäng": 3718,
      "ators": 3719,
      "atory": 3720,
      "repe": 3721,
      "schreit": 3722,
      "territ": 3723,
      "needed": 3724,
      "consequ": 3725,
      "opol": 3726,
      "met": 3727,
      "gesetz": 3728,
      "extent": 3729,
      "post": 3730,
      "training": 3731,
      "durchaus": 3732,
      "status": 3733,
      "läßt": 3734,
      "minim": 3735,
      "Gemeinsamen": 3736,
      "Änderung": 3737,
      "specif": 3738,
      "service": 3739,
      "industrie": 3740,
      "sorge": 3741,
      "völlig": 3742,
      "begrüße": 3743,
      "Justiz": 3744,
      "coordination": 3745,
      "entwickeln": 3746,
      "sagte": 3747,
      "Öffentlichkeit": 3748,
      "Bed": 3749,
      "BSE": 3750,
      "GC": 3751,
      "IGC": 3752,
      "Lu": 3753,
      "Rand": 3754,
      "SP": 3755,
      "Viel": 3756,
      "Zum": 3757,
      "ator": 3758,
      "ichten": 3759,
      "respe": 3760,
      "achen": 3761,
      "cken": 3762,
      "Beg": 3763,
      "hase": 3764,
      "France": 3765,
      "baren": 3766,
      "trägen": 3767,
      "Bereiche": 3768,
      "gestimmt": 3769,
      "Richtlinien": 3770,
      "wesentlichen": 3771,
      "involve": 3772,
      "technical": 3773,
      "nehm": 3774,
      "commitment": 3775,
      "assistance": 3776,
      "Empfe": 3777,
      "honour": 3778,
      "relev": 3779,
      "prepared": 3780,
      "Macedonia": 3781,
      "Zweitens": 3782,
      "criteria": 3783,
      "Agenda": 3784,
      "By": 3785,
      "EN": 3786,
      "Janu": 3787,
      "Lien": 3788,
      "Mär": 3789,
      "cir": 3790,
      "due": 3791,
      "fs": 3792,
      "gre": 3793,
      "iled": 3794,
      "koh": 3795,
      "nu": 3796,
      "seinem": 3797,
      "ermöglichen": 3798,
      "rect": 3799,
      "eingehen": 3800,
      "imes": 3801,
      "verstär": 3802,
      "irgend": 3803,
      "sufficient": 3804,
      "makes": 3805,
      "Schwier": 3806,
      "pover": 3807,
      "Voraus": 3808,
      "propose": 3809,
      "community": 3810,
      "trotz": 3811,
      "saying": 3812,
      "gleichen": 3813,
      "asked": 3814,
      "Abgeordneter": 3815,
      "benefit": 3816,
      "Gebieten": 3817,
      "Sozialschutz": 3818,
      "Vereinigten": 3819,
      "sorgen": 3820,
      "Entscheidungen": 3821,
      "requirements": 3822,
      "vorschriften": 3823,
      "Charter": 3824,
      "Barnier": 3825,
      "disaster": 3826,
      "Stabilität": 3827,
      "construction": 3828,
      "vehicles": 3829,
      "Lienem": 3830,
      "Global": 3831,
      "Let": 3832,
      "Sü": 3833,
      "ckt": 3834,
      "ellen": 3835,
      "fil": 3836,
      "lö": 3837,
      "meinem": 3838,
      "sof": 3839,
      "she": 3840,
      "six": 3841,
      "zü": 3842,
      "österreich": 3843,
      "ined": 3844,
      "ieg": 3845,
      "offer": 3846,
      "using": 3847,
      "ifel": 3848,
      "excl": 3849,
      "legung": 3850,
      "Schritt": 3851,
      "final": 3852,
      "stage": 3853,
      "perhaps": 3854,
      "wait": 3855,
      "ritten": 3856,
      "concil": 3857,
      "ody": 3858,
      "Gesch": 3859,
      "consideration": 3860,
      "ledge": 3861,
      "reiben": 3862,
      "Prü": 3863,
      "Prinzip": 3864,
      "priority": 3865,
      "Zuständ": 3866,
      "accordance": 3867,
      "suggest": 3868,
      "solidarity": 3869,
      "crucial": 3870,
      "Lienemann": 3871,
      "Dah": 3872,
      "Haltung": 3873,
      "list": 3874,
      "live": 3875,
      "eren": 3876,
      "unemployment": 3877,
      "recommend": 3878,
      "amil": 3879,
      "icy": 3880,
      "above": 3881,
      "heut": 3882,
      "exc": 3883,
      "Ansatz": 3884,
      "Armut": 3885,
      "staaten": 3886,
      "Absicht": 3887,
      "Konferenz": 3888,
      "scient": 3889,
      "prakt": 3890,
      "bildung": 3891,
      "unterstützt": 3892,
      "reasons": 3893,
      "könnten": 3894,
      "pointed": 3895,
      "Firstly": 3896,
      "wünschen": 3897,
      "Friedens": 3898,
      "tabled": 3899,
      "analys": 3900,
      "schnell": 3901,
      "verhindern": 3902,
      "significant": 3903,
      "Koordinierung": 3904,
      "cord": 3905,
      "cross": 3906,
      "ians": 3907,
      "lange": 3908,
      "oil": 3909,
      "side": 3910,
      "uld": 3911,
      "cho": 3912,
      "org": 3913,
      "entscheid": 3914,
      "iglich": 3915,
      "semb": 3916,
      "held": 3917,
      "heben": 3918,
      "istischen": 3919,
      "sper": 3920,
      "tru": 3921,
      "ktive": 3922,
      "endlich": 3923,
      "liebe": 3924,
      "linie": 3925,
      "ishing": 3926,
      "whose": 3927,
      "presented": 3928,
      "themselves": 3929,
      "adopt": 3930,
      "ehrte": 3931,
      "gesellschaft": 3932,
      "established": 3933,
      "Leg": 3934,
      "Werte": 3935,
      "wertung": 3936,
      "gruppen": 3937,
      "genannten": 3938,
      "Integration": 3939,
      "Zunächst": 3940,
      "Daher": 3941,
      "East": 3942,
      "Hul": 3943,
      "Med": 3944,
      "Vielen": 3945,
      "ay": 3946,
      "hind": 3947,
      "mü": 3948,
      "milit": 3949,
      "zä": 3950,
      "zogen": 3951,
      "erfü": 3952,
      "refle": 3953,
      "asch": 3954,
      "teile": 3955,
      "omé": 3956,
      "wed": 3957,
      "raised": 3958,
      "ürz": 3959,
      "istic": 3960,
      "content": 3961,
      "ressed": 3962,
      "mechan": 3963,
      "Versch": 3964,
      "vorgelegt": 3965,
      "obwohl": 3966,
      "speech": 3967,
      "comments": 3968,
      "hinweisen": 3969,
      "developed": 3970,
      "teilt": 3971,
      "views": 3972,
      "lediglich": 3973,
      "Wettbewerbspolitik": 3974,
      "hold": 3975,
      "procedures": 3976,
      "Entschließungs": 3977,
      "limited": 3978,
      "experience": 3979,
      "Ergebnisse": 3980,
      "according": 3981,
      "reached": 3982,
      "guarantee": 3983,
      "Mehrheit": 3984,
      "Sinne": 3985,
      "viol": 3986,
      "betreffen": 3987,
      "satis": 3988,
      "Schwierigkeiten": 3989,
      "poverty": 3990,
      "Sache": 3991,
      "War": 3992,
      "body": 3993,
      "dlich": 3994,
      "krä": 3995,
      "ring": 3996,
      "win": 3997,
      "ücht": 3998,
      "chem": 3999,
      "isse": 4000,
      "stet": 4001,
      "entire": 4002,
      "beant": 4003,
      "total": 4004,
      "gehend": 4005,
      "aums": 4006,
      "weder": 4007,
      "weden": 4008,
      "formen": 4009,
      "rad": 4010,
      "comprom": 4011,
      "Proto": 4012,
      "goods": 4013,
      "conclu": 4014,
      "angemessen": 4015,
      "konzentr": 4016,
      "anzös": 4017,
      "ograph": 4018,
      "plans": 4019,
      "freue": 4020,
      "trächt": 4021,
      "Aufgaben": 4022,
      "Stad": 4023,
      "offens": 4024,
      "ology": 4025,
      "kommens": 4026,
      "opportunities": 4027,
      "required": 4028,
      "bestimmte": 4029,
      "Durchführung": 4030,
      "Organisation": 4031,
      "rene": 4032,
      "conclusion": 4033,
      "members": 4034,
      "ampere": 4035,
      "Serb": 4036,
      "Question": 4037,
      "sprechend": 4038,
      "Bemühungen": 4039,
      "specifically": 4040,
      "circ": 4041,
      "Hulten": 4042,
      "Kin": 4043,
      "Miß": 4044,
      "Pub": 4045,
      "Tampere": 4046,
      "jähr": 4047,
      "mann": 4048,
      "wise": 4049,
      "chnung": 4050,
      "ond": 4051,
      "rein": 4052,
      "lear": 4053,
      "def": 4054,
      "llt": 4055,
      "neigh": 4056,
      "istent": 4057,
      "iding": 4058,
      "achten": 4059,
      "ession": 4060,
      "aging": 4061,
      "sage": 4062,
      "Erika": 4063,
      "Erstens": 4064,
      "legt": 4065,
      "legitim": 4066,
      "Abschließend": 4067,
      "hingewiesen": 4068,
      "prepar": 4069,
      "ünft": 4070,
      "telle": 4071,
      "struments": 4072,
      "Konfli": 4073,
      "agreed": 4074,
      "Gesprä": 4075,
      "Arbeitspl": 4076,
      "mitteln": 4077,
      "Minder": 4078,
      "bald": 4079,
      "nature": 4080,
      "stehenden": 4081,
      "grundlegen": 4082,
      "Treaties": 4083,
      "increased": 4084,
      "value": 4085,
      "priorities": 4086,
      "movement": 4087,
      "ufig": 4088,
      "zeuge": 4089,
      "zweite": 4090,
      "haupt": 4091,
      "administration": 4092,
      "Diskussion": 4093,
      "Informationen": 4094,
      "namely": 4095,
      "Vertrauen": 4096,
      "congratulate": 4097,
      "exclus": 4098,
      "neighbour": 4099,
      "40": 4100,
      "ME": 4101,
      "date": 4102,
      "eil": 4103,
      "gült": 4104,
      "hunder": 4105,
      "müß": 4106,
      "material": 4107,
      "pite": 4108,
      "rimin": 4109,
      "sit": 4110,
      "ersch": 4111,
      "erien": 4112,
      "anish": 4113,
      "iste": 4114,
      "deral": 4115,
      "stop": 4116,
      "verab": 4117,
      "verkehr": 4118,
      "vergangenen": 4119,
      "ilities": 4120,
      "ket": 4121,
      "alloc": 4122,
      "lay": 4123,
      "super": 4124,
      "etwa": 4125,
      "indic": 4126,
      "liz": 4127,
      "incor": 4128,
      "Absatz": 4129,
      "allein": 4130,
      "folge": 4131,
      "Mitglieder": 4132,
      "treffen": 4133,
      "setzungen": 4134,
      "Rats": 4135,
      "Dieses": 4136,
      "considered": 4137,
      "letzt": 4138,
      "applied": 4139,
      "rought": 4140,
      "talk": 4141,
      "talking": 4142,
      "achieved": 4143,
      "Policy": 4144,
      "finanziellen": 4145,
      "Plen": 4146,
      "until": 4147,
      "zeugen": 4148,
      "Seite": 4149,
      "scheint": 4150,
      "aspects": 4151,
      "Balkan": 4152,
      "verbunden": 4153,
      "relevant": 4154,
      "Human": 4155,
      "Kern": 4156,
      "Sach": 4157,
      "Tat": 4158,
      "bür": 4159,
      "either": 4160,
      "hoch": 4161,
      "na": 4162,
      "sser": 4163,
      "ühr": 4164,
      "Uns": 4165,
      "Insel": 4166,
      "tage": 4167,
      "Republik": 4168,
      "gessen": 4169,
      "advan": 4170,
      "sichern": 4171,
      "quick": 4172,
      "Environment": 4173,
      "Erfolg": 4174,
      "oblig": 4175,
      "Vorsitz": 4176,
      "parties": 4177,
      "immung": 4178,
      "spezie": 4179,
      "unterst": 4180,
      "hinder": 4181,
      "ished": 4182,
      "ikan": 4183,
      "overall": 4184,
      "wendet": 4185,
      "wichtigsten": 4186,
      "wesentlich": 4187,
      "markets": 4188,
      "Projekt": 4189,
      "institutional": 4190,
      "Ihrer": 4191,
      "Solidar": 4192,
      "allgemeinen": 4193,
      "Kommissionsmitglie": 4194,
      "Uhr": 4195,
      "hu": 4196,
      "anken": 4197,
      "alität": 4198,
      "leider": 4199,
      "gelung": 4200,
      "scht": 4201,
      "Vermitt": 4202,
      "tack": 4203,
      "stead": 4204,
      "jeweil": 4205,
      "Ausführ": 4206,
      "immigr": 4207,
      "unseres": 4208,
      "vernünft": 4209,
      "production": 4210,
      "begin": 4211,
      "transfer": 4212,
      "critic": 4213,
      "Charta": 4214,
      "außerdem": 4215,
      "practical": 4216,
      "practice": 4217,
      "directives": 4218,
      "correct": 4219,
      "referred": 4220,
      "criminal": 4221,
      "kontrolle": 4222,
      "portugiesische": 4223,
      "Gerichtshof": 4224,
      "bitten": 4225,
      "encourage": 4226,
      "refuge": 4227,
      "Qualität": 4228,
      "bezüglich": 4229,
      "Gesellschaft": 4230,
      "discrimination": 4231,
      "\".": 4232,
      "Kraft": 4233,
      "Lomé": 4234,
      "Nie": 4235,
      "One": 4236,
      "Pe": 4237,
      "Pra": 4238,
      "Ris": 4239,
      "Rom": 4240,
      "fern": 4241,
      "iver": 4242,
      "pfen": 4243,
      "ches": 4244,
      "reference": 4245,
      "befür": 4246,
      "behör": 4247,
      "behandelt": 4248,
      "ausch": 4249,
      "igte": 4250,
      "weist": 4251,
      "ica": 4252,
      "verstanden": 4253,
      "edu": 4254,
      "note": 4255,
      "try": 4256,
      "Verbind": 4257,
      "Anders": 4258,
      "wasser": 4259,
      "Vorsorge": 4260,
      "beitragen": 4261,
      "comment": 4262,
      "reichend": 4263,
      "französ": 4264,
      "reports": 4265,
      "caution": 4266,
      "occas": 4267,
      "board": 4268,
      "ßnahme": 4269,
      "Richtung": 4270,
      "sicherlich": 4271,
      "sinn": 4272,
      "ported": 4273,
      "danke": 4274,
      "attem": 4275,
      "happ": 4276,
      "Hersteller": 4277,
      "effects": 4278,
      "größer": 4279,
      "Zustimmung": 4280,
      "capital": 4281,
      "pursu": 4282,
      "Angelegenheiten": 4283,
      "länger": 4284,
      "Grenzen": 4285,
      "Forderung": 4286,
      "drücklich": 4287,
      "Text": 4288,
      "assessment": 4289,
      "Public": 4290,
      "Car": 4291,
      "Do": 4292,
      "Tag": 4293,
      "Vö": 4294,
      "Wissen": 4295,
      "ath": 4296,
      "cies": 4297,
      "ging": 4298,
      "hinter": 4299,
      "hard": 4300,
      "nern": 4301,
      "äum": 4302,
      "iter": 4303,
      "rechte": 4304,
      "recycling": 4305,
      "lege": 4306,
      "zuführen": 4307,
      "veränder": 4308,
      "core": 4309,
      "Bel": 4310,
      "fac": 4311,
      "Eng": 4312,
      "interpre": 4313,
      "poor": 4314,
      "samm": 4315,
      "Einw": 4316,
      "1995": 4317,
      "velopment": 4318,
      "ierenden": 4319,
      "stated": 4320,
      "gebung": 4321,
      "myself": 4322,
      "Development": 4323,
      "provision": 4324,
      "hören": 4325,
      "relating": 4326,
      "cris": 4327,
      "funden": 4328,
      "balance": 4329,
      "schiede": 4330,
      "measure": 4331,
      "establishing": 4332,
      "Democ": 4333,
      "adequ": 4334,
      "zeichne": 4335,
      "istrib": 4336,
      "difficulties": 4337,
      "gehören": 4338,
      "Natürlich": 4339,
      "Behörde": 4340,
      "Industr": 4341,
      "Verwaltung": 4342,
      "Angelegenheit": 4343,
      "received": 4344,
      "organisations": 4345,
      "gewährleisten": 4346,
      "amount": 4347,
      "conflict": 4348,
      "Gemeinschaftsinitiative": 4349,
      "several": 4350,
      "Kennt": 4351,
      "absolutely": 4352,
      "Solidarität": 4353,
      "))": 4354,
      "AP": 4355,
      "Ihren": 4356,
      "Nations": 4357,
      "When": 4358,
      "glichen": 4359,
      "pted": 4360,
      "uments": 4361,
      "inking": 4362,
      "ality": 4363,
      "round": 4364,
      "left": 4365,
      "behind": 4366,
      "einheit": 4367,
      "Inde": 4368,
      "takes": 4369,
      "Rechnung": 4370,
      "itious": 4371,
      "approv": 4372,
      "Frank": 4373,
      "Einführung": 4374,
      "ihn": 4375,
      "front": 4376,
      "consult": 4377,
      "Änderungen": 4378,
      "firstly": 4379,
      "lastung": 4380,
      "strategic": 4381,
      "Hinsicht": 4382,
      "throughout": 4383,
      "attle": 4384,
      "beziehen": 4385,
      "Plan": 4386,
      "Justice": 4387,
      "kontroll": 4388,
      "Lebensmittelsicherheit": 4389,
      "consumer": 4390,
      "gegenwärtig": 4391,
      "Gründen": 4392,
      "ffizient": 4393,
      "challenge": 4394,
      "function": 4395,
      "tatsächlich": 4396,
      "Tibet": 4397,
      "connection": 4398,
      "Ausführungen": 4399,
      "37": 4400,
      "Of": 4401,
      "fug": 4402,
      "funktion": 4403,
      "gän": 4404,
      "lab": 4405,
      "via": 4406,
      "volle": 4407,
      "onnen": 4408,
      "isiert": 4409,
      "bemü": 4410,
      "getragen": 4411,
      "zustimmen": 4412,
      "outs": 4413,
      "verstehen": 4414,
      "vergessen": 4415,
      "ichtlich": 4416,
      "abge": 4417,
      "werte": 4418,
      "tritt": 4419,
      "ums": 4420,
      "Veränder": 4421,
      "Vergangen": 4422,
      "Initiativen": 4423,
      "Kommissionspräsident": 4424,
      "formul": 4425,
      "else": 4426,
      "precaution": 4427,
      "nahmen": 4428,
      "folger": 4429,
      "damage": 4430,
      "days": 4431,
      "haltung": 4432,
      "laub": 4433,
      "wiederhol": 4434,
      "beginn": 4435,
      "beschlossen": 4436,
      "Menschenrechts": 4437,
      "Never": 4438,
      "Flücht": 4439,
      "carry": 4440,
      "stark": 4441,
      "hätten": 4442,
      "Haupt": 4443,
      "bedingt": 4444,
      "bedingungen": 4445,
      "existing": 4446,
      "portugiesischen": 4447,
      "participation": 4448,
      "ehm": 4449,
      "Directive": 4450,
      "arrange": 4451,
      "Globalisierung": 4452,
      "sembly": 4453,
      "Stadt": 4454,
      "Frankreich": 4455,
      "Vergangenheit": 4456,
      "16": 4457,
      "Aktion": 4458,
      "Frem": 4459,
      "Kinno": 4460,
      "Meiner": 4461,
      "Nun": 4462,
      "Pre": 4463,
      "avo": 4464,
      "away": 4465,
      "keiner": 4466,
      "kulture": 4467,
      "nommen": 4468,
      "session": 4469,
      "öst": 4470,
      "ref": 4471,
      "road": 4472,
      "entsprechend": 4473,
      "bevor": 4474,
      "llos": 4475,
      "cting": 4476,
      "utor": 4477,
      "conv": 4478,
      "resear": 4479,
      "Verwendung": 4480,
      "ktions": 4481,
      "sucht": 4482,
      "ending": 4483,
      "exchange": 4484,
      "Betr": 4485,
      "motion": 4486,
      "safe": 4487,
      "jedem": 4488,
      "darstellt": 4489,
      "bleibt": 4490,
      "Abschluß": 4491,
      "ünst": 4492,
      "fraud": 4493,
      "uba": 4494,
      "europäischer": 4495,
      "decided": 4496,
      "bodies": 4497,
      "Aufmerksam": 4498,
      "Zeitraum": 4499,
      "ständigen": 4500,
      "Monaten": 4501,
      "Handels": 4502,
      "Portugal": 4503,
      "Diskrimin": 4504,
      "powers": 4505,
      "bedeuten": 4506,
      "recognis": 4507,
      "künftig": 4508,
      "Bemer": 4509,
      "substances": 4510,
      "creating": 4511,
      "Regionalpolitik": 4512,
      "stuff": 4513,
      "manufacturers": 4514,
      "Fischere": 4515,
      "früher": 4516,
      "Linie": 4517,
      "erneut": 4518,
      "renew": 4519,
      "Kinder": 4520,
      "incorpor": 4521,
      "quickly": 4522,
      "precautionary": 4523,
      "Kinnock": 4524,
      "research": 4525,
      "Aufmerksamkeit": 4526,
      "Komm": 4527,
      "National": 4528,
      "col": 4529,
      "flo": 4530,
      "flag": 4531,
      "fluß": 4532,
      "giving": 4533,
      "kraft": 4534,
      "inf": 4535,
      "inal": 4536,
      "chil": 4537,
      "isieren": 4538,
      "unacceptable": 4539,
      "gelt": 4540,
      "dell": 4541,
      "zusetzen": 4542,
      "verz": 4543,
      "liches": 4544,
      "ilar": 4545,
      "rest": 4546,
      "design": 4547,
      "poll": 4548,
      "fast": 4549,
      "acce": 4550,
      "acqu": 4551,
      "heraus": 4552,
      "Schro": 4553,
      "presidency": 4554,
      "hinzu": 4555,
      "prehen": 4556,
      "forderung": 4557,
      "reading": 4558,
      "bestät": 4559,
      "Landes": 4560,
      "natural": 4561,
      "bezogen": 4562,
      "kosten": 4563,
      "judicial": 4564,
      "recently": 4565,
      "Aspekte": 4566,
      "private": 4567,
      "agricultural": 4568,
      "komp": 4569,
      "building": 4570,
      "detail": 4571,
      "Fortschritte": 4572,
      "Zugang": 4573,
      "vereinbar": 4574,
      "analysis": 4575,
      "Protok": 4576,
      "sammlung": 4577,
      "Democrat": 4578,
      "Fremden": 4579,
      "18": 4580,
      "Nos": 4581,
      "cla": 4582,
      "nam": 4583,
      "nation": 4584,
      "south": 4585,
      "indest": 4586,
      "instruments": 4587,
      "orig": 4588,
      "entgegen": 4589,
      "entschieden": 4590,
      "abkommen": 4591,
      "rahmen": 4592,
      "ilität": 4593,
      "spar": 4594,
      "suff": 4595,
      "living": 4596,
      "stelle": 4597,
      "strand": 4598,
      "goes": 4599,
      "ordn": 4600,
      "brief": 4601,
      "zumindest": 4602,
      "Zusatz": 4603,
      "subsidiar": 4604,
      "Asyl": 4605,
      "rapie": 4606,
      "regionale": 4607,
      "großer": 4608,
      "Therefore": 4609,
      "produce": 4610,
      "beglück": 4611,
      "establishment": 4612,
      "Vereinten": 4613,
      "gelegten": 4614,
      "höch": 4615,
      "bauen": 4616,
      "limit": 4617,
      "prüft": 4618,
      "created": 4619,
      "Verwaltungs": 4620,
      "Folgen": 4621,
      "appear": 4622,
      "konkreten": 4623,
      "vorliegenden": 4624,
      "week": 4625,
      "persön": 4626,
      "potential": 4627,
      "determin": 4628,
      "Beginn": 4629,
      "Andersson": 4630,
      "Vorsorgeprinzip": 4631,
      "Amer": 4632,
      "Ged": 4633,
      "Ide": 4634,
      "Ro": 4635,
      "big": 4636,
      "cred": 4637,
      "disch": 4638,
      "mess": 4639,
      "nissen": 4640,
      "uted": 4641,
      "yond": 4642,
      "erung": 4643,
      "atic": 4644,
      "rechts": 4645,
      "getro": 4646,
      "dep": 4647,
      "wide": 4648,
      "sech": 4649,
      "gency": 4650,
      "keits": 4651,
      "despite": 4652,
      "granted": 4653,
      "überschreit": 4654,
      "mot": 4655,
      "agraph": 4656,
      "annual": 4657,
      "Städ": 4658,
      "Ausrichtung": 4659,
      "interess": 4660,
      "Einzel": 4661,
      "concentr": 4662,
      "handlung": 4663,
      "führungs": 4664,
      "Arbeitnehmer": 4665,
      "response": 4666,
      "pflich": 4667,
      "scope": 4668,
      "Finanzierung": 4669,
      "Arbeitslosigkeit": 4670,
      "wishes": 4671,
      "wissenschaft": 4672,
      "gesamt": 4673,
      "erkennung": 4674,
      "ambitious": 4675,
      "Komprom": 4676,
      "affected": 4677,
      "impact": 4678,
      "completely": 4679,
      "Schlußfolger": 4680,
      "colleagues": 4681,
      "Prioritäten": 4682,
      "recognise": 4683,
      "spirit": 4684,
      "consequences": 4685,
      "conciliation": 4686,
      "heutigen": 4687,
      "outside": 4688,
      "claim": 4689,
      "subsidiarity": 4690,
      "getroffen": 4691,
      "17": 4692,
      "Dimension": 4693,
      "FY": 4694,
      "Ru": 4695,
      "ROM": 4696,
      "brought": 4697,
      "iken": 4698,
      "jur": 4699,
      "kungen": 4700,
      "nä": 4701,
      "xen": 4702,
      "xis": 4703,
      "zer": 4704,
      "ons": 4705,
      "anced": 4706,
      "unsch": 4707,
      "ream": 4708,
      "remo": 4709,
      "ichen": 4710,
      "enten": 4711,
      "gefordert": 4712,
      "edter": 4713,
      "heer": 4714,
      "heard": 4715,
      "kelt": 4716,
      "meth": 4717,
      "Republic": 4718,
      "etary": 4719,
      "liability": 4720,
      "exact": 4721,
      "mag": 4722,
      "itives": 4723,
      "fel": 4724,
      "möchten": 4725,
      "sieht": 4726,
      "Augen": 4727,
      "works": 4728,
      "voting": 4729,
      "times": 4730,
      "setzt": 4731,
      "direction": 4732,
      "Dec": 4733,
      "guten": 4734,
      "Assembly": 4735,
      "Rechtsvorschriften": 4736,
      "möglichst": 4737,
      "Dazu": 4738,
      "selbstverständlich": 4739,
      "Ort": 4740,
      "hoben": 4741,
      "integrated": 4742,
      "affairs": 4743,
      "gesamte": 4744,
      "staatliche": 4745,
      "Worte": 4746,
      "zweiten": 4747,
      "speakers": 4748,
      "Amendments": 4749,
      "Subsidiar": 4750,
      "businesses": 4751,
      "broad": 4752,
      "Partnerschaft": 4753,
      "intention": 4754,
      "growth": 4755,
      "planning": 4756,
      "Vereinbarung": 4757,
      "Beteiligung": 4758,
      "sitting": 4759,
      "Nevertheless": 4760,
      "Schroedter": 4761,
      "FYROM": 4762,
      "26": 4763,
      "Ad": 4764,
      "Fle": 4765,
      "Sw": 4766,
      "San": 4767,
      "Spe": 4768,
      "Yugosla": 4769,
      "aking": 4770,
      "effizient": 4771,
      "fter": 4772,
      "firm": 4773,
      "home": 4774,
      "iate": 4775,
      "kolog": 4776,
      "mber": 4777,
      "run": 4778,
      "tief": 4779,
      "threat": 4780,
      "ested": 4781,
      "ismen": 4782,
      "bedarf": 4783,
      "gewicht": 4784,
      "eing": 4785,
      "urgent": 4786,
      "vember": 4787,
      "schem": 4788,
      "prof": 4789,
      "ussels": 4790,
      "ume": 4791,
      "ively": 4792,
      "Reformen": 4793,
      "expla": 4794,
      "except": 4795,
      "adv": 4796,
      "mobil": 4797,
      "Anerkennung": 4798,
      "comprehen": 4799,
      "Argument": 4800,
      "possibility": 4801,
      "Einsatz": 4802,
      "1994": 4803,
      "1996": 4804,
      "ighted": 4805,
      "related": 4806,
      "monopol": 4807,
      "seek": 4808,
      "braucht": 4809,
      "Jahrhunder": 4810,
      "scale": 4811,
      "helfen": 4812,
      "November": 4813,
      "everything": 4814,
      "sectors": 4815,
      "gegebenen": 4816,
      "Brussels": 4817,
      "Transport": 4818,
      "effort": 4819,
      "closed": 4820,
      "leitet": 4821,
      "intend": 4822,
      "entsprechenden": 4823,
      "griffen": 4824,
      "gruppe": 4825,
      "parliamentary": 4826,
      "Gesundheit": 4827,
      "Gesundheits": 4828,
      "enorm": 4829,
      "circum": 4830,
      "labour": 4831,
      "Subsidiarität": 4832,
      "Ju": 4833,
      "Op": 4834,
      "PP": 4835,
      "Tätigkeit": 4836,
      "bl": 4837,
      "cut": 4838,
      "dut": 4839,
      "hab": 4840,
      "listen": 4841,
      "none": 4842,
      "yo": 4843,
      "ökolog": 4844,
      "erweise": 4845,
      "union": 4846,
      "unbedingt": 4847,
      "ales": 4848,
      "beyond": 4849,
      "ase": 4850,
      "geäuß": 4851,
      "iment": 4852,
      "ouch": 4853,
      "verpflich": 4854,
      "utter": 4855,
      "contrad": 4856,
      "aufzu": 4857,
      "haft": 4858,
      "optim": 4859,
      "meisten": 4860,
      "Inhalt": 4861,
      "übernehmen": 4862,
      "überhaupt": 4863,
      "fear": 4864,
      "feeding": 4865,
      "gerichtet": 4866,
      "finally": 4867,
      "perfe": 4868,
      "foreign": 4869,
      "frieden": 4870,
      "Kohä": 4871,
      "guard": 4872,
      "ventions": 4873,
      "known": 4874,
      "Forsch": 4875,
      "Haushalt": 4876,
      "fahrens": 4877,
      "element": 4878,
      "reforms": 4879,
      "contribute": 4880,
      "bestimmten": 4881,
      "independent": 4882,
      "creation": 4883,
      "Brüssel": 4884,
      "entwickelt": 4885,
      "Modern": 4886,
      "successful": 4887,
      "fördert": 4888,
      "erkennen": 4889,
      "entsprechende": 4890,
      "Ressourcen": 4891,
      "Zweifel": 4892,
      "Regelungen": 4893,
      "konkrete": 4894,
      "conclusions": 4895,
      "kleinen": 4896,
      "dienen": 4897,
      "spezif": 4898,
      "offensichtlich": 4899,
      "stuffs": 4900,
      "circumst": 4901,
      "Kohäs": 4902,
      "Eben": 4903,
      "FR": 4904,
      "Hö": 4905,
      "Terr": 4906,
      "equality": 4907,
      "oda": 4908,
      "inspe": 4909,
      "island": 4910,
      "geleistet": 4911,
      "gefunden": 4912,
      "dealt": 4913,
      "urge": 4914,
      "istische": 4915,
      "condu": 4916,
      "umwelt": 4917,
      "Verhält": 4918,
      "laß": 4919,
      "gesund": 4920,
      "anti": 4921,
      "Anstreng": 4922,
      "lot": 4923,
      "regret": 4924,
      "besten": 4925,
      "Vorbereit": 4926,
      "immed": 4927,
      "brit": 4928,
      "Einbezie": 4929,
      "wogen": 4930,
      "betonen": 4931,
      "durchgeführt": 4932,
      "workers": 4933,
      "nochmals": 4934,
      "konom": 4935,
      "Maße": 4936,
      "Unterschiede": 4937,
      "jedes": 4938,
      "Stahl": 4939,
      "Sep": 4940,
      "feststellen": 4941,
      "grundlage": 4942,
      "discussing": 4943,
      "Groß": 4944,
      "Entscheidungs": 4945,
      "reasonable": 4946,
      "reduce": 4947,
      "globalisation": 4948,
      "Beschluß": 4949,
      "griff": 4950,
      "administrative": 4951,
      "Balkans": 4952,
      "lokalen": 4953,
      "ethnic": 4954,
      "officials": 4955,
      "Katastrophe": 4956,
      "vergence": 4957,
      "focus": 4958,
      "nuclear": 4959,
      "compromise": 4960,
      "Arbeitsplätze": 4961,
      "huge": 4962,
      "Kenntnis": 4963,
      "Einbeziehung": 4964,
      "Bas": 4965,
      "Cor": 4966,
      "Dritt": 4967,
      "Element": 4968,
      "Falle": 4969,
      "How": 4970,
      "Irel": 4971,
      "Mil": 4972,
      "Niel": 4973,
      "Zivil": 4974,
      "bung": 4975,
      "efficient": 4976,
      "iot": 4977,
      "kn": 4978,
      "yse": 4979,
      "äl": 4980,
      "ält": 4981,
      "engen": 4982,
      "erwarten": 4983,
      "ato": 4984,
      "stor": 4985,
      "gewesen": 4986,
      "geograph": 4987,
      "aut": 4988,
      "auern": 4989,
      "deli": 4990,
      "ury": 4991,
      "olution": 4992,
      "schl": 4993,
      "schlossen": 4994,
      "schäd": 4995,
      "verse": 4996,
      "terday": 4997,
      "sound": 4998,
      "convergence": 4999,
      "prob": 5000,
      "reser": 5001,
      "iers": 5002,
      "ceed": 5003,
      "werk": 5004,
      "Unser": 5005,
      "ktiven": 5006,
      "exer": 5007,
      "änden": 5008,
      "Commissioners": 5009,
      "applies": 5010,
      "Schwer": 5011,
      "elder": 5012,
      "Einfluß": 5013,
      "rift": 5014,
      "Maßnahme": 5015,
      "Untersuch": 5016,
      "Grundsätze": 5017,
      "fälle": 5018,
      "ergreifen": 5019,
      "approve": 5020,
      "levels": 5021,
      "setting": 5022,
      "everyone": 5023,
      "ifellos": 5024,
      "transparent": 5025,
      "langt": 5026,
      "steps": 5027,
      "Beschl": 5028,
      "laufen": 5029,
      "documents": 5030,
      "Ratspräsidentschaft": 5031,
      "agriculture": 5032,
      "akzeptieren": 5033,
      "block": 5034,
      "konnte": 5035,
      "crisis": 5036,
      "beginning": 5037,
      "verpflichtet": 5038,
      "circumstances": 5039,
      "Ireland": 5040,
      "35": 5041,
      "Alt": 5042,
      "Denn": 5043,
      "Further": 5044,
      "Gar": 5045,
      "Krit": 5046,
      "Män": 5047,
      "Nur": 5048,
      "Some": 5049,
      "distrib": 5050,
      "hob": 5051,
      "kürz": 5052,
      "mass": 5053,
      "punkte": 5054,
      "vest": 5055,
      "äter": 5056,
      "ähn": 5057,
      "intens": 5058,
      "thought": 5059,
      "isms": 5060,
      "unanim": 5061,
      "orient": 5062,
      "stoffe": 5063,
      "arily": 5064,
      "beein": 5065,
      "asyl": 5066,
      "vere": 5067,
      "verfolgen": 5068,
      "forth": 5069,
      "proz": 5070,
      "splä": 5071,
      "achteil": 5072,
      "Versammlung": 5073,
      "iveau": 5074,
      "Beam": 5075,
      "Bedenken": 5076,
      "Annahme": 5077,
      "lose": 5078,
      "wart": 5079,
      "oboda": 5080,
      "link": 5081,
      "Grunde": 5082,
      "wicklung": 5083,
      "caused": 5084,
      "anything": 5085,
      "events": 5086,
      "bot": 5087,
      "Geschäft": 5088,
      "ämt": 5089,
      "crime": 5090,
      "qualität": 5091,
      "Seattle": 5092,
      "harm": 5093,
      "festgelegt": 5094,
      "bessern": 5095,
      "reality": 5096,
      "products": 5097,
      "beginnen": 5098,
      "elect": 5099,
      "currency": 5100,
      "Ministers": 5101,
      "Wert": 5102,
      "similar": 5103,
      "communities": 5104,
      "seriously": 5105,
      "Fehl": 5106,
      "normal": 5107,
      "zeugung": 5108,
      "verschieden": 5109,
      "grenzüberschreit": 5110,
      "flexibility": 5111,
      "erwähnt": 5112,
      "tember": 5113,
      "regeln": 5114,
      "combat": 5115,
      "merely": 5116,
      "Kapital": 5117,
      "refugees": 5118,
      "Wissenschaft": 5119,
      "adequate": 5120,
      "kompliz": 5121,
      "Swoboda": 5122,
      "Anstrengungen": 5123,
      "September": 5124,
      "\",": 5125,
      "Brit": 5126,
      "Com": 5127,
      "Dinge": 5128,
      "Eind": 5129,
      "Je": 5130,
      "Jo": 5131,
      "Kü": 5132,
      "Kouch": 5133,
      "Os": 5134,
      "Tier": 5135,
      "Tour": 5136,
      "WIP": 5137,
      "gliche": 5138,
      "lier": 5139,
      "pts": 5140,
      "rig": 5141,
      "sive": 5142,
      "wahl": 5143,
      "erhö": 5144,
      "itime": 5145,
      "rep": 5146,
      "aler": 5147,
      "gekommen": 5148,
      "wet": 5149,
      "imate": 5150,
      "verbind": 5151,
      "emal": 5152,
      "tran": 5153,
      "gesichts": 5154,
      "Betrifft": 5155,
      "competen": 5156,
      "pel": 5157,
      "parts": 5158,
      "paragraph": 5159,
      "darstellen": 5160,
      "örper": 5161,
      "positions": 5162,
      "politisch": 5163,
      "gelassen": 5164,
      "Kollege": 5165,
      "insgesamt": 5166,
      "Bereit": 5167,
      "Aufnahme": 5168,
      "weltweit": 5169,
      "considerable": 5170,
      "knowledge": 5171,
      "bessere": 5172,
      "begrenz": 5173,
      "ternal": 5174,
      "zahlreiche": 5175,
      "Flor": 5176,
      "properly": 5177,
      "medium": 5178,
      "Volk": 5179,
      "Woche": 5180,
      "künftigen": 5181,
      "Subject": 5182,
      "gemeinschaftlichen": 5183,
      "Liberal": 5184,
      "betrachte": 5185,
      "Sorge": 5186,
      "Africa": 5187,
      "betroffenen": 5188,
      "obviously": 5189,
      "lösen": 5190,
      "Geschichte": 5191,
      "kräft": 5192,
      "MEP": 5193,
      "jeweiligen": 5194,
      "Verbindung": 5195,
      "arrangements": 5196,
      "Fischerei": 5197,
      "Protokoll": 5198,
      "suffer": 5199,
      "exerc": 5200,
      "asylum": 5201,
      "Kouchner": 5202,
      "WIPO": 5203,
      "010": 5204,
      "Ac": 5205,
      "Drit": 5206,
      "FP": 5207,
      "Fern": 5208,
      "Funktion": 5209,
      "Les": 5210,
      "Sinn": 5211,
      "WTO": 5212,
      "fass": 5213,
      "flicht": 5214,
      "gab": 5215,
      "hnung": 5216,
      "hoffen": 5217,
      "rational": 5218,
      "raten": 5219,
      "sus": 5220,
      "ökonom": 5221,
      "erneuer": 5222,
      "thus": 5223,
      "ane": 5224,
      "alu": 5225,
      "derer": 5226,
      "städ": 5227,
      "took": 5228,
      "geiz": 5229,
      "eind": 5230,
      "einiger": 5231,
      "delay": 5232,
      "sele": 5233,
      "schuld": 5234,
      "verteid": 5235,
      "verbessern": 5236,
      "soz": 5237,
      "istisch": 5238,
      "ophob": 5239,
      "umgesetzt": 5240,
      "taint": 5241,
      "endgült": 5242,
      "Angesichts": 5243,
      "Stat": 5244,
      "iency": 5245,
      "jede": 5246,
      "warum": 5247,
      "intervention": 5248,
      "former": 5249,
      "formations": 5250,
      "elle": 5251,
      "sibilities": 5252,
      "utzt": 5253,
      "geschaffen": 5254,
      "wirksam": 5255,
      "Staat": 5256,
      "additives": 5257,
      "benef": 5258,
      "drawn": 5259,
      "jahr": 5260,
      "constit": 5261,
      "Autos": 5262,
      "Wiederauf": 5263,
      "covered": 5264,
      "February": 5265,
      "Dienstleistungs": 5266,
      "somit": 5267,
      "farmers": 5268,
      "honourable": 5269,
      "österreichischen": 5270,
      "scientific": 5271,
      "Plenum": 5272,
      "Unsere": 5273,
      "Industrie": 5274,
      "Indeed": 5275,
      "Kommun": 5276,
      "näher": 5277,
      "Modernisierung": 5278,
      "Nielson": 5279,
      "22": 5280,
      "Agr": 5281,
      "Bü": 5282,
      "Ere": 5283,
      "La": 5284,
      "Mc": 5285,
      "OSP": 5286,
      "Will": 5287,
      "cke": 5288,
      "fishing": 5289,
      "greif": 5290,
      "hne": 5291,
      "ped": 5292,
      "targe": 5293,
      "enable": 5294,
      "iell": 5295,
      "rete": 5296,
      "along": 5297,
      "stabil": 5298,
      "argu": 5299,
      "entspricht": 5300,
      "assure": 5301,
      "aust": 5302,
      "forces": 5303,
      "dadurch": 5304,
      "desire": 5305,
      "grant": 5306,
      "Invest": 5307,
      "vorher": 5308,
      "Bewertung": 5309,
      "Anfang": 5310,
      "log": 5311,
      "Theato": 5312,
      "strö": 5313,
      "strict": 5314,
      "Stär": 5315,
      "ienz": 5316,
      "acity": 5317,
      "ously": 5318,
      "agement": 5319,
      "developments": 5320,
      "ption": 5321,
      "factor": 5322,
      "Zielen": 5323,
      "möglichkeit": 5324,
      "elected": 5325,
      "elections": 5326,
      "contrary": 5327,
      "representative": 5328,
      "ausgezeichne": 5329,
      "Handel": 5330,
      "promoting": 5331,
      "Vorschlägen": 5332,
      "Kontrollen": 5333,
      "Bestand": 5334,
      "zeugt": 5335,
      "enthält": 5336,
      "Erklärungen": 5337,
      "Hause": 5338,
      "ffizienz": 5339,
      "sequently": 5340,
      "Februar": 5341,
      "associ": 5342,
      "spolit": 5343,
      "dringend": 5344,
      "yesterday": 5345,
      "Kommissionsmitglied": 5346,
      "beglückwünschen": 5347,
      "xenophob": 5348,
      "Furthermore": 5349,
      "OSPAR": 5350,
      "100": 5351,
      "34": 5352,
      "Don": 5353,
      "Gra": 5354,
      "Last": 5355,
      "Langen": 5356,
      "Sum": 5357,
      "dauer": 5358,
      "fal": 5359,
      "hlung": 5360,
      "ift": 5361,
      "ize": 5362,
      "lies": 5363,
      "later": 5364,
      "ound": 5365,
      "oten": 5366,
      "sort": 5367,
      "sämt": 5368,
      "uern": 5369,
      "ene": 5370,
      "infra": 5371,
      "aner": 5372,
      "entwurf": 5373,
      "befinden": 5374,
      "diejenigen": 5375,
      "urally": 5376,
      "ings": 5377,
      "ampf": 5378,
      "schlä": 5379,
      "verur": 5380,
      "verme": 5381,
      "raise": 5382,
      "heart": 5383,
      "sovere": 5384,
      "uropa": 5385,
      "Ungleich": 5386,
      "ifall": 5387,
      "esses": 5388,
      "ends": 5389,
      "vorlegen": 5390,
      "Beifall": 5391,
      "zeigen": 5392,
      "Third": 5393,
      "legungen": 5394,
      "Schritte": 5395,
      "ureau": 5396,
      "itionen": 5397,
      "Fraktionen": 5398,
      "concrete": 5399,
      "konstru": 5400,
      "anker": 5401,
      "instream": 5402,
      "gelungen": 5403,
      "gelöst": 5404,
      "supported": 5405,
      "proving": 5406,
      "operate": 5407,
      "Internet": 5408,
      "governance": 5409,
      "ihres": 5410,
      "letzte": 5411,
      "Umweltschutz": 5412,
      "product": 5413,
      "useful": 5414,
      "morning": 5415,
      "iode": 5416,
      "sprü": 5417,
      "looking": 5418,
      "künd": 5419,
      "Heute": 5420,
      "demokratische": 5421,
      "statements": 5422,
      "Wohl": 5423,
      "rule": 5424,
      "grounds": 5425,
      "secutor": 5426,
      "Since": 5427,
      "ehemal": 5428,
      "build": 5429,
      "Gesetzgebung": 5430,
      "Gruppe": 5431,
      "beteiligt": 5432,
      "repeat": 5433,
      "stets": 5434,
      "Nieder": 5435,
      "Risik": 5436,
      "Völker": 5437,
      "Belg": 5438,
      "convinc": 5439,
      "sechs": 5440,
      "Kompromiß": 5441,
      "comprehensive": 5442,
      "Lesung": 5443,
      "sovereign": 5444,
      "),": 5445,
      "Ap": 5446,
      "Chr": 5447,
      "Fonds": 5448,
      "Har": 5449,
      "Ist": 5450,
      "Spra": 5451,
      "Von": 5452,
      "cities": 5453,
      "eher": 5454,
      "gst": 5455,
      "hor": 5456,
      "körper": 5457,
      "rie": 5458,
      "rate": 5459,
      "tung": 5460,
      "uine": 5461,
      "vital": 5462,
      "wat": 5463,
      "äst": 5464,
      "unfortunately": 5465,
      "alter": 5466,
      "stud": 5467,
      "eingesetzt": 5468,
      "ands": 5469,
      "weak": 5470,
      "schle": 5471,
      "zufrieden": 5472,
      "ouver": 5473,
      "rac": 5474,
      "nel": 5475,
      "prosper": 5476,
      "Europol": 5477,
      "Informations": 5478,
      "Regelung": 5479,
      "nennen": 5480,
      "ibilität": 5481,
      "tzen": 5482,
      "apprec": 5483,
      "regular": 5484,
      "fell": 5485,
      "kennt": 5486,
      "acio": 5487,
      "chtung": 5488,
      "observ": 5489,
      "räsent": 5490,
      "permit": 5491,
      "waste": 5492,
      "nationale": 5493,
      "consistent": 5494,
      "earlier": 5495,
      "evalu": 5496,
      "akter": 5497,
      "ständige": 5498,
      "gestalten": 5499,
      "dient": 5500,
      "Mitteln": 5501,
      "fulfil": 5502,
      "gestellten": 5503,
      "ehrgeiz": 5504,
      "involving": 5505,
      "March": 5506,
      "Fundamental": 5507,
      "zahlen": 5508,
      "subjects": 5509,
      "fficiency": 5510,
      "ictions": 5511,
      "capacity": 5512,
      "complex": 5513,
      "directly": 5514,
      "Seiten": 5515,
      "grenzung": 5516,
      "Resolution": 5517,
      "introduce": 5518,
      "substant": 5519,
      "purpose": 5520,
      "schwerwie": 5521,
      "Objective": 5522,
      "Palacio": 5523,
      "diskutieren": 5524,
      "mission": 5525,
      "ecological": 5526,
      "Widerspruch": 5527,
      "Greece": 5528,
      "submitted": 5529,
      "minimum": 5530,
      "März": 5531,
      "Konflikt": 5532,
      "influ": 5533,
      "discharge": 5534,
      "message": 5535,
      "Schlußfolgerungen": 5536,
      "PPE": 5537,
      "geäußert": 5538,
      "perfect": 5539,
      "tainty": 5540,
      "Agrar": 5541,
      "Christ": 5542,
      "Brok": 5543,
      "Red": 5544,
      "Stelle": 5545,
      "Wach": 5546,
      "Wog": 5547,
      "Wunsch": 5548,
      "dungs": 5549,
      "falt": 5550,
      "ires": 5551,
      "keines": 5552,
      "katastrop": 5553,
      "nutzen": 5554,
      "ping": 5555,
      "rong": 5556,
      "wonder": 5557,
      "chance": 5558,
      "iture": 5559,
      "almost": 5560,
      "arch": 5561,
      "around": 5562,
      "geworden": 5563,
      "auto": 5564,
      "denkt": 5565,
      "igungen": 5566,
      "zusätz": 5567,
      "vertre": 5568,
      "verfolgt": 5569,
      "verfügen": 5570,
      "lying": 5571,
      "beru": 5572,
      "contra": 5573,
      "ides": 5574,
      "ussed": 5575,
      "Verhalten": 5576,
      "Report": 5577,
      "coast": 5578,
      "excess": 5579,
      "benachteil": 5580,
      "modif": 5581,
      "worth": 5582,
      "Mitarbeit": 5583,
      "gering": 5584,
      "elig": 5585,
      "Präsidenten": 5586,
      "plant": 5587,
      "kommenden": 5588,
      "freu": 5589,
      "Delegation": 5590,
      "employe": 5591,
      "discussed": 5592,
      "resolutions": 5593,
      "confirm": 5594,
      "century": 5595,
      "genteil": 5596,
      "thanks": 5597,
      "Änderungsanträgen": 5598,
      "dealing": 5599,
      "Milliar": 5600,
      "intended": 5601,
      "borders": 5602,
      "Folge": 5603,
      "relationship": 5604,
      "tasks": 5605,
      "activity": 5606,
      "parliaments": 5607,
      "Syri": 5608,
      "enterpr": 5609,
      "manufacturer": 5610,
      "Fällen": 5611,
      "positiv": 5612,
      "Festlegung": 5613,
      "Fahrzeuge": 5614,
      "Verpflichtungen": 5615,
      "König": 5616,
      "Prüfung": 5617,
      "erfüllen": 5618,
      "Veränderungen": 5619,
      "pollution": 5620,
      "Flex": 5621,
      "Kriterien": 5622,
      "FPÖ": 5623,
      "Wogau": 5624,
      "Macht": 5625,
      "Ober": 5626,
      "Po": 5627,
      "Wahr": 5628,
      "bra": 5629,
      "bank": 5630,
      "cation": 5631,
      "dimension": 5632,
      "gives": 5633,
      "lom": 5634,
      "nes": 5635,
      "rasch": 5636,
      "sagt": 5637,
      "wrong": 5638,
      "erinner": 5639,
      "ination": 5640,
      "ancen": 5641,
      "isher": 5642,
      "unge": 5643,
      "teen": 5644,
      "dex": 5645,
      "dead": 5646,
      "verweisen": 5647,
      "versuchen": 5648,
      "gender": 5649,
      "genet": 5650,
      "genug": 5651,
      "genuine": 5652,
      "condem": 5653,
      "concept": 5654,
      "achtet": 5655,
      "external": 5656,
      "ado": 5657,
      "willing": 5658,
      "shown": 5659,
      "maxim": 5660,
      "Anal": 5661,
      "regionen": 5662,
      "Entlastung": 5663,
      "Vorgehen": 5664,
      "ensuring": 5665,
      "pressure": 5666,
      "Gegenteil": 5667,
      "wässer": 5668,
      "Umfang": 5669,
      "itude": 5670,
      "direkt": 5671,
      "operations": 5672,
      "Aufbau": 5673,
      "placed": 5674,
      "Problemen": 5675,
      "Überwach": 5676,
      "istence": 5677,
      "Although": 5678,
      "ologie": 5679,
      "zweifellos": 5680,
      "nunmehr": 5681,
      "gave": 5682,
      "Beitritt": 5683,
      "acknow": 5684,
      "pression": 5685,
      "simple": 5686,
      "notwendigen": 5687,
      "Krieg": 5688,
      "Aller": 5689,
      "itäts": 5690,
      "north": 5691,
      "effectively": 5692,
      "langfrist": 5693,
      "judge": 5694,
      "Wochen": 5695,
      "informed": 5696,
      "investig": 5697,
      "Aspekt": 5698,
      "victim": 5699,
      "sym": 5700,
      "Währung": 5701,
      "negative": 5702,
      "colleague": 5703,
      "Schiffe": 5704,
      "Person": 5705,
      "Herausforderung": 5706,
      "innovative": 5707,
      "Erfahrungen": 5708,
      "billion": 5709,
      "Stoffe": 5710,
      "konzentrieren": 5711,
      "müßte": 5712,
      "behörde": 5713,
      "avoid": 5714,
      "accepted": 5715,
      "December": 5716,
      "feedingstuffs": 5717,
      "probably": 5718,
      "Geschäfts": 5719,
      "Florenz": 5720,
      "ouverän": 5721,
      "Königreich": 5722,
      "81": 5723,
      "Futter": 5724,
      "Gest": 5725,
      "Hoff": 5726,
      "Spiel": 5727,
      "bor": 5728,
      "dle": 5729,
      "div": 5730,
      "fig": 5731,
      "fassung": 5732,
      "feind": 5733,
      "jün": 5734,
      "kaum": 5735,
      "miß": 5736,
      "ners": 5737,
      "pet": 5738,
      "rich": 5739,
      "sk": 5740,
      "sent": 5741,
      "situ": 5742,
      "tät": 5743,
      "ynam": 5744,
      "zielen": 5745,
      "üter": 5746,
      "ühren": 5747,
      "ino": 5748,
      "une": 5749,
      "ature": 5750,
      "reib": 5751,
      "review": 5752,
      "stum": 5753,
      "bekommen": 5754,
      "asse": 5755,
      "tober": 5756,
      "einschließlich": 5757,
      "andels": 5758,
      "amber": 5759,
      "schn": 5760,
      "schlagen": 5761,
      "schätz": 5762,
      "genü": 5763,
      "erecht": 5764,
      "usw": 5765,
      "spo": 5766,
      "spielen": 5767,
      "Unabhäng": 5768,
      "Recycling": 5769,
      "laid": 5770,
      "gesche": 5771,
      "maß": 5772,
      "word": 5773,
      "outcome": 5774,
      "besitz": 5775,
      "Schließ": 5776,
      "iplom": 5777,
      "forms": 5778,
      "linge": 5779,
      "speaking": 5780,
      "Grie": 5781,
      "politics": 5782,
      "maritime": 5783,
      "plau": 5784,
      "ließen": 5785,
      "führten": 5786,
      "läss": 5787,
      "wichtiger": 5788,
      "Besorg": 5789,
      "bieten": 5790,
      "internationale": 5791,
      "addressed": 5792,
      "competiti": 5793,
      "strategie": 5794,
      "remember": 5795,
      "zeichnen": 5796,
      "structures": 5797,
      "stärk": 5798,
      "Neu": 5799,
      "sprinzip": 5800,
      "signed": 5801,
      "kämpfen": 5802,
      "critical": 5803,
      "finanzielle": 5804,
      "mögliche": 5805,
      "konkret": 5806,
      "Organe": 5807,
      "World": 5808,
      "Chance": 5809,
      "improvement": 5810,
      "intends": 5811,
      "Automobil": 5812,
      "demands": 5813,
      "Regeln": 5814,
      "Normen": 5815,
      "COS": 5816,
      "Liber": 5817,
      "burg": 5818,
      "weeks": 5819,
      "konnten": 5820,
      "Perspe": 5821,
      "Personen": 5822,
      "Irland": 5823,
      "sofern": 5824,
      "Minderheiten": 5825,
      "Betrug": 5826,
      "exactly": 5827,
      "forthcoming": 5828,
      "Eindruck": 5829,
      "Joint": 5830,
      "Harmon": 5831,
      "fellow": 5832,
      "90": 5833,
      "Alle": 5834,
      "Blick": 5835,
      "Effizienz": 5836,
      "Fo": 5837,
      "Jon": 5838,
      "Raums": 5839,
      "agen": 5840,
      "ada": 5841,
      "bureau": 5842,
      "card": 5843,
      "efficiency": 5844,
      "fangen": 5845,
      "hilfe": 5846,
      "rne": 5847,
      "rup": 5848,
      "sth": 5849,
      "wal": 5850,
      "erweiter": 5851,
      "thinking": 5852,
      "anten": 5853,
      "isol": 5854,
      "unkten": 5855,
      "itten": 5856,
      "stimme": 5857,
      "delegation": 5858,
      "ama": 5859,
      "separ": 5860,
      "iction": 5861,
      "vert": 5862,
      "verehrte": 5863,
      "tert": 5864,
      "später": 5865,
      "allgemein": 5866,
      "gestern": 5867,
      "auses": 5868,
      "ausreichend": 5869,
      "voraus": 5870,
      "vorhand": 5871,
      "extens": 5872,
      "benöt": 5873,
      "steel": 5874,
      "ahn": 5875,
      "Erwart": 5876,
      "staff": 5877,
      "ört": 5878,
      "Einige": 5879,
      "wält": 5880,
      "angs": 5881,
      "Deut": 5882,
      "berecht": 5883,
      "Grundrechte": 5884,
      "ized": 5885,
      "International": 5886,
      "fällt": 5887,
      "rapid": 5888,
      "vielmehr": 5889,
      "internationaler": 5890,
      "rightly": 5891,
      "Rechtsgrundlage": 5892,
      "class": 5893,
      "Nachbar": 5894,
      "Stellen": 5895,
      "hängt": 5896,
      "versity": 5897,
      "ausgewogen": 5898,
      "stattung": 5899,
      "wären": 5900,
      "join": 5901,
      "appropriations": 5902,
      "Wettbewerbsfähigkeit": 5903,
      "leiten": 5904,
      "committed": 5905,
      "More": 5906,
      "Worten": 5907,
      "institutionellen": 5908,
      "Turk": 5909,
      "history": 5910,
      "absolut": 5911,
      "receive": 5912,
      "bestehenden": 5913,
      "disasters": 5914,
      "schwierig": 5915,
      "einzige": 5916,
      "erklärt": 5917,
      "vorzulegen": 5918,
      "...": 5919,
      "Währungs": 5920,
      "verantwortlich": 5921,
      "sensitive": 5922,
      "diskutiert": 5923,
      "andidaten": 5924,
      "Lux": 5925,
      "Byrne": 5926,
      "cording": 5927,
      "Praxis": 5928,
      "französischen": 5929,
      "renewable": 5930,
      "gesundheit": 5931,
      "möglichkeiten": 5932,
      "erinnert": 5933,
      "Analyse": 5934,
      "geschehen": 5935,
      "plause": 5936,
      "23": 5937,
      "27": 5938,
      "60": 5939,
      "Akte": 5940,
      "Aktionen": 5941,
      "Achtung": 5942,
      "Bö": 5943,
      "Can": 5944,
      "Druck": 5945,
      "Fün": 5946,
      "Ho": 5947,
      "Jugosla": 5948,
      "Lauf": 5949,
      "MU": 5950,
      "Mir": 5951,
      "Nutzung": 5952,
      "famil": 5953,
      "hy": 5954,
      "san": 5955,
      "went": 5956,
      "zember": 5957,
      "erläu": 5958,
      "unch": 5959,
      "unmittel": 5960,
      "reag": 5961,
      "alition": 5962,
      "oral": 5963,
      "stag": 5964,
      "stitution": 5965,
      "behandeln": 5966,
      "tot": 5967,
      "gebe": 5968,
      "eingesch": 5969,
      "einsetzen": 5970,
      "sehe": 5971,
      "improving": 5972,
      "veran": 5973,
      "verlei": 5974,
      "versucht": 5975,
      "absicht": 5976,
      "emer": 5977,
      "heim": 5978,
      "wirkt": 5979,
      "ürk": 5980,
      "conven": 5981,
      "span": 5982,
      "ifying": 5983,
      "mensch": 5984,
      "Parität": 5985,
      "vorange": 5986,
      "Beweis": 5987,
      "übertragen": 5988,
      "Anlaß": 5989,
      "parlament": 5990,
      "federal": 5991,
      "Wirk": 5992,
      "Scha": 5993,
      "partners": 5994,
      "angeb": 5995,
      "voc": 5996,
      "timet": 5997,
      "hlungen": 5998,
      "early": 5999,
      "okraten": 6000,
      "compens": 6001,
      "stands": 6002,
      "Dezember": 6003,
      "ittees": 6004,
      "zielt": 6005,
      "wirklichen": 6006,
      "ategor": 6007,
      "richten": 6008,
      "richtlinie": 6009,
      "balanced": 6010,
      "bilden": 6011,
      "achieving": 6012,
      "Projekten": 6013,
      "ländliche": 6014,
      "penditure": 6015,
      "Meer": 6016,
      "introduced": 6017,
      "Dennoch": 6018,
      "derzeitigen": 6019,
      "personal": 6020,
      "carefully": 6021,
      "bourg": 6022,
      "Syr": 6023,
      "Forderungen": 6024,
      "amongst": 6025,
      "regelmäß": 6026,
      "contains": 6027,
      "derartige": 6028,
      "continuing": 6029,
      "Herausforderungen": 6030,
      "extend": 6031,
      "territor": 6032,
      "Zuständigkeit": 6033,
      "attempt": 6034,
      "approval": 6035,
      "ordnungs": 6036,
      "Yugoslavia": 6037,
      "Garant": 6038,
      "betrachtet": 6039,
      "convinced": 6040,
      "rieben": 6041,
      "Milliarden": 6042,
      "Allerdings": 6043,
      "victims": 6044,
      "Griechen": 6045,
      "Jugoslawi": 6046,
      "45": 6047,
      "Fakt": 6048,
      "Gip": 6049,
      "Jör": 6050,
      "Moment": 6051,
      "Nord": 6052,
      "VP": 6053,
      "clos": 6054,
      "fes": 6055,
      "house": 6056,
      "kop": 6057,
      "late": 6058,
      "nöt": 6059,
      "woll": 6060,
      "Öl": 6061,
      "ines": 6062,
      "anno": 6063,
      "unzu": 6064,
      "reb": 6065,
      "reject": 6066,
      "betrie": 6067,
      "teien": 6068,
      "ingt": 6069,
      "amm": 6070,
      "verste": 6071,
      "lling": 6072,
      "near": 6073,
      "conference": 6074,
      "iddle": 6075,
      "grunde": 6076,
      "Verständ": 6077,
      "Verlauf": 6078,
      "ckheer": 6079,
      "ffend": 6080,
      "exem": 6081,
      "Stimme": 6082,
      "acter": 6083,
      "obtain": 6084,
      "Schl": 6085,
      "Schengen": 6086,
      "ganze": 6087,
      "perspe": 6088,
      "committees": 6089,
      "nachzu": 6090,
      "ierende": 6091,
      "plen": 6092,
      "barkeit": 6093,
      "dren": 6094,
      "iveness": 6095,
      "providing": 6096,
      "frag": 6097,
      "fällig": 6098,
      "publ": 6099,
      "base": 6100,
      "naturally": 6101,
      "financing": 6102,
      "bringt": 6103,
      "protect": 6104,
      "möglicherweise": 6105,
      "mainly": 6106,
      "Hauses": 6107,
      "stimmt": 6108,
      "Trans": 6109,
      "Monate": 6110,
      "differences": 6111,
      "veness": 6112,
      "seiten": 6113,
      "vorschlag": 6114,
      "reduction": 6115,
      "attach": 6116,
      "experts": 6117,
      "experien": 6118,
      "Gleichgewicht": 6119,
      "Chamber": 6120,
      "character": 6121,
      "treaties": 6122,
      "secure": 6123,
      "constructive": 6124,
      "challenges": 6125,
      "organisationen": 6126,
      "erfolgreich": 6127,
      "combating": 6128,
      "Dienstleistungen": 6129,
      "Bildung": 6130,
      "Verkehrs": 6131,
      "rokrat": 6132,
      "beschränken": 6133,
      "territory": 6134,
      "Randlage": 6135,
      "Empfehlungen": 6136,
      "Januar": 6137,
      "Voraussetzung": 6138,
      "Legal": 6139,
      "manner": 6140,
      "Sachverständ": 6141,
      "bürger": 6142,
      "People": 6143,
      "Einwander": 6144,
      "referr": 6145,
      "Diskriminierung": 6146,
      "Altfahr": 6147,
      "According": 6148,
      "jüng": 6149,
      "situations": 6150,
      "Schließlich": 6151,
      "competitiveness": 6152,
      "Jonckheer": 6153,
      "bureauc": 6154,
      "Jörg": 6155,
      "Agricult": 6156,
      "Aktiv": 6157,
      "Dän": 6158,
      "Even": 6159,
      "Kampf": 6160,
      "Nutzen": 6161,
      "Pap": 6162,
      "Vitor": 6163,
      "ain": 6164,
      "ages": 6165,
      "bon": 6166,
      "bad": 6167,
      "cam": 6168,
      "don": 6169,
      "hilfen": 6170,
      "iere": 6171,
      "lat": 6172,
      "rates": 6173,
      "sized": 6174,
      "ón": 6175,
      "envis": 6176,
      "instead": 6177,
      "isp": 6178,
      "isierungs": 6179,
      "uner": 6180,
      "unsten": 6181,
      "reden": 6182,
      "alone": 6183,
      "ently": 6184,
      "toler": 6185,
      "einverstanden": 6186,
      "deg": 6187,
      "igent": 6188,
      "zudem": 6189,
      "zugrunde": 6190,
      "verurs": 6191,
      "ilo": 6192,
      "ush": 6193,
      "spielt": 6194,
      "trying": 6195,
      "Infra": 6196,
      "ausdrücklich": 6197,
      "code": 6198,
      "cohol": 6199,
      "explan": 6200,
      "expenditure": 6201,
      "steuer": 6202,
      "überzeugt": 6203,
      "que": 6204,
      "quant": 6205,
      "Anfragen": 6206,
      "Anforderungen": 6207,
      "ernsth": 6208,
      "Prosecutor": 6209,
      "Ents": 6210,
      "räum": 6211,
      "tedly": 6212,
      "price": 6213,
      "uellen": 6214,
      "uelle": 6215,
      "herz": 6216,
      "Schweden": 6217,
      "ipul": 6218,
      "fine": 6219,
      "Vorhaben": 6220,
      "elimin": 6221,
      "ären": 6222,
      "fri": 6223,
      "fried": 6224,
      "Koch": 6225,
      "Umst": 6226,
      "May": 6227,
      "solutions": 6228,
      "stellungen": 6229,
      "Programmen": 6230,
      "gleiche": 6231,
      "paid": 6232,
      "pack": 6233,
      "paign": 6234,
      "Arbeitsplä": 6235,
      "spreche": 6236,
      "Überzeugung": 6237,
      "Überlegungen": 6238,
      "office": 6239,
      "Mindest": 6240,
      "employed": 6241,
      "festgestellt": 6242,
      "rechtlichen": 6243,
      "weshalb": 6244,
      "Techn": 6245,
      "elements": 6246,
      "requires": 6247,
      "Monti": 6248,
      "ternative": 6249,
      "Leist": 6250,
      "öffentlich": 6251,
      "Kritik": 6252,
      "vorschlagen": 6253,
      "jene": 6254,
      "hervorheben": 6255,
      "EURO": 6256,
      "opening": 6257,
      "Freedom": 6258,
      "aims": 6259,
      "risks": 6260,
      "bedau": 6261,
      "198": 6262,
      "scheinlich": 6263,
      "gegenwärtigen": 6264,
      "breiten": 6265,
      "erklären": 6266,
      "emphasise": 6267,
      "closely": 6268,
      "gewähl": 6269,
      "Übereinstimmung": 6270,
      "Welche": 6271,
      "unterschiedlichen": 6272,
      "USA": 6273,
      "involvement": 6274,
      "Empfehlung": 6275,
      "January": 6276,
      "conclude": 6277,
      "allocated": 6278,
      "speziell": 6279,
      "Vermittlungs": 6280,
      "happy": 6281,
      "fugnisse": 6282,
      "safeguard": 6283,
      "children": 6284,
      "enormous": 6285,
      "British": 6286,
      "wettbewerb": 6287,
      "instreaming": 6288,
      "eligible": 6289,
      "Flexibilität": 6290,
      "Geschäftsordnung": 6291,
      "Erwartungen": 6292,
      "Luxem": 6293,
      "eingeschrän": 6294,
      "Vitorino": 6295,
      "campaign": 6296,
      "Infrastruktur": 6297,
      "Budget": 6298,
      "Dann": 6299,
      "Gre": 6300,
      "Hinter": 6301,
      "Klar": 6302,
      "Prä": 6303,
      "Pflicht": 6304,
      "Sc": 6305,
      "Sten": 6306,
      "Souverän": 6307,
      "Wales": 6308,
      "Zur": 6309,
      "ahead": 6310,
      "candid": 6311,
      "east": 6312,
      "hig": 6313,
      "iately": 6314,
      "mär": 6315,
      "rise": 6316,
      "ses": 6317,
      "erwar": 6318,
      "alcohol": 6319,
      "orf": 6320,
      "orgung": 6321,
      "stipul": 6322,
      "beauf": 6323,
      "beabsicht": 6324,
      "geeig": 6325,
      "eingere": 6326,
      "tele": 6327,
      "defen": 6328,
      "terr": 6329,
      "emar": 6330,
      "proje": 6331,
      "ressourcen": 6332,
      "spart": 6333,
      "trib": 6334,
      "deser": 6335,
      "Verletz": 6336,
      "ours": 6337,
      "existence": 6338,
      "maßen": 6339,
      "wortet": 6340,
      "ienste": 6341,
      "beizu": 6342,
      "Armen": 6343,
      "Erwä": 6344,
      "Berücksicht": 6345,
      "Regulation": 6346,
      "allel": 6347,
      "Costa": 6348,
      "anderem": 6349,
      "aged": 6350,
      "Maß": 6351,
      "sonst": 6352,
      "company": 6353,
      "decide": 6354,
      "decentral": 6355,
      "supply": 6356,
      "proposing": 6357,
      "trägt": 6358,
      "fält": 6359,
      "Ihrem": 6360,
      "richtungen": 6361,
      "bietet": 6362,
      "Sekt": 6363,
      "grundsätz": 6364,
      "adopting": 6365,
      "begrün": 6366,
      "licherweise": 6367,
      "talks": 6368,
      "version": 6369,
      "return": 6370,
      "sprün": 6371,
      "höher": 6372,
      "letztendlich": 6373,
      "aktiv": 6374,
      "gewiss": 6375,
      "gewisse": 6376,
      "defined": 6377,
      "applicant": 6378,
      "Gleichstellung": 6379,
      "Why": 6380,
      "Chancen": 6381,
      "nieder": 6382,
      "wachsen": 6383,
      "förderung": 6384,
      "additional": 6385,
      "flexible": 6386,
      "vorgeschlagenen": 6387,
      "Wahlen": 6388,
      "schwierigen": 6389,
      "Exper": 6390,
      "happening": 6391,
      "tradition": 6392,
      "Priorität": 6393,
      "Übereinkommen": 6394,
      "Gruppen": 6395,
      "spolitiken": 6396,
      "nachhaltige": 6397,
      "nehmbar": 6398,
      "coreboard": 6399,
      "interpret": 6400,
      "wiederholen": 6401,
      "wissenschaftlichen": 6402,
      "duty": 6403,
      "nonetheless": 6404,
      "immediately": 6405,
      "electr": 6406,
      "transa": 6407,
      "Ereig": 6408,
      "arguments": 6409,
      "sovereignty": 6410,
      "parlamentar": 6411,
      "timetable": 6412,
      "Dänemar": 6413,
      "Arbeitsplätzen": 6414,
      "Stenzel": 6415,
      "Berücksichtigung": 6416,
      "Apr": 6417,
      "Bau": 6418,
      "DA": 6419,
      "DE": 6420,
      "Dis": 6421,
      "Econ": 6422,
      "Gol": 6423,
      "Jetzt": 6424,
      "Lo": 6425,
      "Wicht": 6426,
      "Zw": 6427,
      "dro": 6428,
      "dlichen": 6429,
      "dank": 6430,
      "dict": 6431,
      "euro": 6432,
      "gig": 6433,
      "ktr": 6434,
      "mist": 6435,
      "range": 6436,
      "send": 6437,
      "türk": 6438,
      "vollen": 6439,
      "wind": 6440,
      "ziel": 6441,
      "ère": 6442,
      "erör": 6443,
      "init": 6444,
      "unable": 6445,
      "itar": 6446,
      "atur": 6447,
      "iech": 6448,
      "dert": 6449,
      "entschlossen": 6450,
      "entwicklung": 6451,
      "asking": 6452,
      "gefördert": 6453,
      "einbezogen": 6454,
      "death": 6455,
      "omic": 6456,
      "wid": 6457,
      "dence": 6458,
      "sex": 6459,
      "schrän": 6460,
      "schrift": 6461,
      "verfü": 6462,
      "ctor": 6463,
      "issu": 6464,
      "istan": 6465,
      "spent": 6466,
      "haften": 6467,
      "oples": 6468,
      "griech": 6469,
      "etimes": 6470,
      "ausstattung": 6471,
      "liberal": 6472,
      "Behandlung": 6473,
      "shilfe": 6474,
      "itige": 6475,
      "Anliegen": 6476,
      "Annäher": 6477,
      "peoples": 6478,
      "worr": 6479,
      "Mitentscheid": 6480,
      "kennen": 6481,
      "Berlin": 6482,
      "Einhaltung": 6483,
      "angehör": 6484,
      "rière": 6485,
      "decl": 6486,
      "mehrere": 6487,
      "Konta": 6488,
      "Kontin": 6489,
      "occur": 6490,
      "relative": 6491,
      "Gesamt": 6492,
      "systeme": 6493,
      "Besonder": 6494,
      "klare": 6495,
      "Landwir": 6496,
      "ganzen": 6497,
      "condition": 6498,
      "approxim": 6499,
      "zugunsten": 6500,
      "climate": 6501,
      "citizen": 6502,
      "Wasserpolitik": 6503,
      "Instanz": 6504,
      "taxation": 6505,
      "Arbeitsmarkt": 6506,
      "häufig": 6507,
      "German": 6508,
      "highl": 6509,
      "sorg": 6510,
      "promotion": 6511,
      "eingegangen": 6512,
      "reducing": 6513,
      "improved": 6514,
      "bezieht": 6515,
      "nächste": 6516,
      "außerord": 6517,
      "außerhalb": 6518,
      "reiter": 6519,
      "ausschusses": 6520,
      "sources": 6521,
      "commitments": 6522,
      "Modell": 6523,
      "Denmark": 6524,
      "explo": 6525,
      "größere": 6526,
      "leave": 6527,
      "Palest": 6528,
      "ütze": 6529,
      "Greek": 6530,
      "Verpflichtung": 6531,
      "minorities": 6532,
      "military": 6533,
      "sinnvoll": 6534,
      "Flüchtlinge": 6535,
      "Preis": 6536,
      "conduct": 6537,
      "Vorbereitung": 6538,
      "Drittens": 6539,
      "austausch": 6540,
      "ström": 6541,
      "Stärkung": 6542,
      "Thirdly": 6543,
      "employees": 6544,
      "Überwachung": 6545,
      "Harmonisierung": 6546,
      "Turkish": 6547,
      "totally": 6548,
      "verleihen": 6549,
      "plenary": 6550,
      "degree": 6551,
      "Souveränität": 6552,
      "April": 6553,
      "initial": 6554,
      "After": 6555,
      "Cuba": 6556,
      "Dro": 6557,
      "Danish": 6558,
      "Famil": 6559,
      "Klim": 6560,
      "Meines": 6561,
      "Nu": 6562,
      "Rap": 6563,
      "She": 6564,
      "Sonder": 6565,
      "Waffen": 6566,
      "Yet": 6567,
      "came": 6568,
      "diplom": 6569,
      "mün": 6570,
      "oben": 6571,
      "pas": 6572,
      "täu": 6573,
      "ugen": 6574,
      "itors": 6575,
      "ieht": 6576,
      "rema": 6577,
      "reffen": 6578,
      "entit": 6579,
      "bedeut": 6580,
      "gewalt": 6581,
      "undes": 6582,
      "ursprün": 6583,
      "dens": 6584,
      "wealth": 6585,
      "sea": 6586,
      "sektor": 6587,
      "schar": 6588,
      "zufolge": 6589,
      "zugelassen": 6590,
      "verwalt": 6591,
      "versichern": 6592,
      "genere": 6593,
      "soph": 6594,
      "profit": 6595,
      "aufmerksam": 6596,
      "opposed": 6597,
      "Unfortunately": 6598,
      "Verfahrens": 6599,
      "mittag": 6600,
      "launch": 6601,
      "ausgehen": 6602,
      "ausgesprochen": 6603,
      "added": 6604,
      "schaf": 6605,
      "Anspruch": 6606,
      "Ausarbeitung": 6607,
      "across": 6608,
      "herit": 6609,
      "Schul": 6610,
      "Berat": 6611,
      "commer": 6612,
      "betont": 6613,
      "durchzuführen": 6614,
      "ideas": 6615,
      "unced": 6616,
      "otherwise": 6617,
      "serve": 6618,
      "declar": 6619,
      "barer": 6620,
      "eva": 6621,
      "subsid": 6622,
      "osevic": 6623,
      "systemat": 6624,
      "neues": 6625,
      "lled": 6626,
      "pain": 6627,
      "responsibilities": 6628,
      "produced": 6629,
      "Gebiets": 6630,
      "putting": 6631,
      "ships": 6632,
      "Havel": 6633,
      "industrial": 6634,
      "äußerster": 6635,
      "effectiveness": 6636,
      "managed": 6637,
      "controls": 6638,
      "attitude": 6639,
      "Durchführungs": 6640,
      "Chinese": 6641,
      "eigene": 6642,
      "guarantees": 6643,
      "Darum": 6644,
      "investment": 6645,
      "Bevölkerungs": 6646,
      "Today": 6647,
      "COM": 6648,
      "Binnenmarktes": 6649,
      "consumers": 6650,
      "Diskussionen": 6651,
      "Gründe": 6652,
      "drawing": 6653,
      "wahrscheinlich": 6654,
      "Spanish": 6655,
      "demonstrated": 6656,
      "akzeptiert": 6657,
      "detailed": 6658,
      "association": 6659,
      "umfassende": 6660,
      "minority": 6661,
      "Voraussetzungen": 6662,
      "recommendations": 6663,
      "exclu": 6664,
      "Warum": 6665,
      "materials": 6666,
      "occasions": 6667,
      "Carthy": 6668,
      "laubwürd": 6669,
      "Bemerkungen": 6670,
      "credibility": 6671,
      "zero": 6672,
      "Forschung": 6673,
      "Ebenso": 6674,
      "Höhe": 6675,
      "Verhältnis": 6676,
      "Milosevic": 6677,
      "MEPs": 6678,
      "städt": 6679,
      "McCarthy": 6680,
      "ästin": 6681,
      "study": 6682,
      "Redner": 6683,
      "sympa": 6684,
      "ordnungsgemäß": 6685,
      "referring": 6686,
      "ilosoph": 6687,
      "Economic": 6688,
      "remains": 6689,
      "07": 6690,
      "44": 6691,
      "70": 6692,
      "Aktions": 6693,
      "ES": 6694,
      "El": 6695,
      "Juni": 6696,
      "June": 6697,
      "King": 6698,
      "Lis": 6699,
      "Liss": 6700,
      "Now": 6701,
      "South": 6702,
      "TSE": 6703,
      "Wur": 6704,
      "cri": 6705,
      "dre": 6706,
      "dän": 6707,
      "dienst": 6708,
      "flä": 6709,
      "gigkeit": 6710,
      "hop": 6711,
      "kauf": 6712,
      "sha": 6713,
      "sult": 6714,
      "vig": 6715,
      "äden": 6716,
      "ächt": 6717,
      "anc": 6718,
      "ison": 6719,
      "itation": 6720,
      "itable": 6721,
      "altet": 6722,
      "bele": 6723,
      "beträcht": 6724,
      "gefü": 6725,
      "gehalten": 6726,
      "tete": 6727,
      "impression": 6728,
      "verbesser": 6729,
      "forget": 6730,
      "abon": 6731,
      "abgeschlossen": 6732,
      "sole": 6733,
      "ierter": 6734,
      "Verteid": 6735,
      "tabel": 6736,
      "etc": 6737,
      "ausführ": 6738,
      "ausschließlich": 6739,
      "Parteien": 6740,
      "idents": 6741,
      "vorrang": 6742,
      "codecision": 6743,
      "Betrie": 6744,
      "advis": 6745,
      "pollu": 6746,
      "moving": 6747,
      "ungsverfahren": 6748,
      "lock": 6749,
      "Weiter": 6750,
      "facing": 6751,
      "appar": 6752,
      "goal": 6753,
      "Ausgaben": 6754,
      "Auswahl": 6755,
      "Ausgrenzung": 6756,
      "finde": 6757,
      "proport": 6758,
      "Abstimm": 6759,
      "Abkommens": 6760,
      "Einrichtung": 6761,
      "woh": 6762,
      "Aud": 6763,
      "police": 6764,
      "konsequent": 6765,
      "gelangen": 6766,
      "läß": 6767,
      "Decour": 6768,
      "clean": 6769,
      "geschieht": 6770,
      "operators": 6771,
      "besonderen": 6772,
      "akzep": 6773,
      "ventionen": 6774,
      "richtige": 6775,
      "wenigen": 6776,
      "knows": 6777,
      "Mittelpunkt": 6778,
      "schiedet": 6779,
      "discip": 6780,
      "bilater": 6781,
      "Germany": 6782,
      "technische": 6783,
      "highlight": 6784,
      "zahlreichen": 6785,
      "contributions": 6786,
      "Health": 6787,
      "includes": 6788,
      "Systems": 6789,
      "Lösungen": 6790,
      "budgetary": 6791,
      "erforderlichen": 6792,
      "Österreichs": 6793,
      "Willen": 6794,
      "erwähn": 6795,
      "letter": 6796,
      "mbol": 6797,
      "restric": 6798,
      "emphasis": 6799,
      "domin": 6800,
      "easy": 6801,
      "herrschen": 6802,
      "unabhängig": 6803,
      "sofort": 6804,
      "truly": 6805,
      "mechanisms": 6806,
      "Entschließungsantrag": 6807,
      "defend": 6808,
      "exclusion": 6809,
      "verabschiedet": 6810,
      "nahe": 6811,
      "Engagement": 6812,
      "keinerlei": 6813,
      "kulturellen": 6814,
      "recognised": 6815,
      "young": 6816,
      "deliver": 6817,
      "Küsten": 6818,
      "sozi": 6819,
      "Sprache": 6820,
      "waters": 6821,
      "influence": 6822,
      "Syrien": 6823,
      "Agriculture": 6824,
      "heritage": 6825,
      "Kingdom": 6826,
      "Lisbon": 6827,
      "Lissabon": 6828,
      "Decourrière": 6829,
      "akzeptabel": 6830,
      "28": 6831,
      "31": 6832,
      "33": 6833,
      "Corr": 6834,
      "Führ": 6835,
      "Kl": 6836,
      "Liste": 6837,
      "Tro": 6838,
      "cup": 6839,
      "fif": 6840,
      "glück": 6841,
      "haus": 6842,
      "ned": 6843,
      "nütz": 6844,
      "pat": 6845,
      "paper": 6846,
      "taus": 6847,
      "ufen": 6848,
      "zah": 6849,
      "öger": 6850,
      "erous": 6851,
      "ergeben": 6852,
      "recy": 6853,
      "reply": 6854,
      "orre": 6855,
      "arm": 6856,
      "befassen": 6857,
      "gets": 6858,
      "geehrte": 6859,
      "geprüft": 6860,
      "eingebracht": 6861,
      "depend": 6862,
      "imat": 6863,
      "illegal": 6864,
      "neben": 6865,
      "spät": 6866,
      "oppel": 6867,
      "acher": 6868,
      "aussprechen": 6869,
      "auseinander": 6870,
      "liber": 6871,
      "export": 6872,
      "advoc": 6873,
      "antic": 6874,
      "ahen": 6875,
      "worfen": 6876,
      "feld": 6877,
      "fehlen": 6878,
      "fehlt": 6879,
      "goals": 6880,
      "Erarbeitung": 6881,
      "prim": 6882,
      "trages": 6883,
      "ennium": 6884,
      "Auft": 6885,
      "1993": 6886,
      "prefer": 6887,
      "marks": 6888,
      "Mai": 6889,
      "geln": 6890,
      "weiterer": 6891,
      "acting": 6892,
      "2002": 6893,
      "Gemeinsame": 6894,
      "insof": 6895,
      "izü": 6896,
      "owed": 6897,
      "losen": 6898,
      "fragt": 6899,
      "wirtschaftlicher": 6900,
      "politically": 6901,
      "letzter": 6902,
      "loyment": 6903,
      "sett": 6904,
      "Geneva": 6905,
      "break": 6906,
      "Sozialpolitik": 6907,
      "hohe": 6908,
      "hohen": 6909,
      "networks": 6910,
      "achtung": 6911,
      "technology": 6912,
      "highly": 6913,
      "öffentliche": 6914,
      "höhung": 6915,
      "vorschlä": 6916,
      "sides": 6917,
      "Only": 6918,
      "applicable": 6919,
      "Gleichzeitig": 6920,
      "starting": 6921,
      "Freizü": 6922,
      "coherent": 6923,
      "wünsche": 6924,
      "Mechan": 6925,
      "splan": 6926,
      "erwähnen": 6927,
      "vorgesehenen": 6928,
      "participate": 6929,
      "amoun": 6930,
      "intentions": 6931,
      "positiven": 6932,
      "historic": 6933,
      "recognition": 6934,
      "erheblich": 6935,
      "respekt": 6936,
      "betreffenden": 6937,
      "neighbouring": 6938,
      "größeren": 6939,
      "consultation": 6940,
      "Städte": 6941,
      "remote": 6942,
      "gegebenenfalls": 6943,
      "Tourism": 6944,
      "competence": 6945,
      "vermeiden": 6946,
      "schwerwiegen": 6947,
      "perfectly": 6948,
      "Mitarbeiter": 6949,
      "Besorgnis": 6950,
      "vorhanden": 6951,
      "Aktivitäten": 6952,
      "herzlich": 6953,
      "candidate": 6954,
      "higher": 6955,
      "itarian": 6956,
      "commercial": 6957,
      "Are": 6958,
      "Culture": 6959,
      "Dut": 6960,
      "Effe": 6961,
      "From": 6962,
      "Gerecht": 6963,
      "Glaubwürd": 6964,
      "Hol": 6965,
      "HAR": 6966,
      "Rass": 6967,
      "Sweden": 6968,
      "Ter": 6969,
      "VO": 6970,
      "West": 6971,
      "Ze": 6972,
      "aken": 6973,
      "cop": 6974,
      "greifen": 6975,
      "kommission": 6976,
      "langen": 6977,
      "nations": 6978,
      "phase": 6979,
      "ties": 6980,
      "tions": 6981,
      "wit": 6982,
      "erfolgen": 6983,
      "ergriffen": 6984,
      "thous": 6985,
      "iting": 6986,
      "rechen": 6987,
      "ala": 6988,
      "bek": 6989,
      "asp": 6990,
      "tour": 6991,
      "gezogen": 6992,
      "sebene": 6993,
      "schütz": 6994,
      "impossible": 6995,
      "zulegen": 6996,
      "vertrau": 6997,
      "verwendet": 6998,
      "llschaften": 6999,
      "forced": 7000,
      "genehm": 7001,
      "dagegen": 7002,
      "heav": 7003,
      "hrend": 7004,
      "sogenannten": 7005,
      "umzusetzen": 7006,
      "ulative": 7007,
      "Vertrages": 7008,
      "ausreichen": 7009,
      "ateful": 7010,
      "ckung": 7011,
      "endor": 7012,
      "vorsitz": 7013,
      "counter": 7014,
      "extra": 7015,
      "Behrend": 7016,
      "admit": 7017,
      "sensible": 7018,
      "überein": 7019,
      "complement": 7020,
      "combin": 7021,
      "ival": 7022,
      "worse": 7023,
      "appoint": 7024,
      "felt": 7025,
      "Ausbildung": 7026,
      "acy": 7027,
      "gerne": 7028,
      "urely": 7029,
      "Frist": 7030,
      "preser": 7031,
      "presence": 7032,
      "Geber": 7033,
      "Gewähr": 7034,
      "1992": 7035,
      "dispar": 7036,
      "licit": 7037,
      "angeht": 7038,
      "teilweise": 7039,
      "ples": 7040,
      "damals": 7041,
      "gebaut": 7042,
      "freien": 7043,
      "geschrieben": 7044,
      "bound": 7045,
      "debates": 7046,
      "Internal": 7047,
      "Finn": 7048,
      "Beste": 7049,
      "Assozi": 7050,
      "bestand": 7051,
      "Arbeiten": 7052,
      "klang": 7053,
      "qualified": 7054,
      "qualifiz": 7055,
      "greatest": 7056,
      "ohn": 7057,
      "lauben": 7058,
      "examine": 7059,
      "examples": 7060,
      "competitive": 7061,
      "realistic": 7062,
      "Finanzkontrolle": 7063,
      "breite": 7064,
      "gain": 7065,
      "taxes": 7066,
      "technolog": 7067,
      "garant": 7068,
      "Teilen": 7069,
      "stattfinden": 7070,
      "eingeführt": 7071,
      "dürfte": 7072,
      "helping": 7073,
      "reduced": 7074,
      "kodex": 7075,
      "niedr": 7076,
      "constant": 7077,
      "leading": 7078,
      "Straf": 7079,
      "Socialists": 7080,
      "gefährlicher": 7081,
      "Instrumente": 7082,
      "größte": 7083,
      "entwickelten": 7084,
      "einzigen": 7085,
      "Span": 7086,
      "breitung": 7087,
      "burden": 7088,
      "gebiet": 7089,
      "harmonisation": 7090,
      "andererseits": 7091,
      "Erfahrung": 7092,
      "beschäftigen": 7093,
      "sometimes": 7094,
      "militär": 7095,
      "Gespräche": 7096,
      "unterstütze": 7097,
      "immigration": 7098,
      "criticism": 7099,
      "bemüht": 7100,
      "acquis": 7101,
      "hinzufügen": 7102,
      "Fremdenverkehr": 7103,
      "Zusatzstoffe": 7104,
      "persönlich": 7105,
      "Gedanken": 7106,
      "Roth": 7107,
      "exercise": 7108,
      "targets": 7109,
      "Bestandteil": 7110,
      "Applause": 7111,
      "körperschaften": 7112,
      "prosperity": 7113,
      "modified": 7114,
      "enterprises": 7115,
      "tätig": 7116,
      "Fünf": 7117,
      "Verständnis": 7118,
      "wohner": 7119,
      "Corrie": 7120,
      "Rassismus": 7121,
      "Behrendt": 7122,
      "Agre": 7123,
      "Bank": 7124,
      "Bundes": 7125,
      "Gelder": 7126,
      "Hä": 7127,
      "Kann": 7128,
      "KOM": 7129,
      "Lange": 7130,
      "Mio": 7131,
      "Middle": 7132,
      "Osten": 7133,
      "PT": 7134,
      "Punkten": 7135,
      "Tim": 7136,
      "Wall": 7137,
      "cou": 7138,
      "fam": 7139,
      "hm": 7140,
      "jetz": 7141,
      "kam": 7142,
      "kret": 7143,
      "mutzung": 7144,
      "pft": 7145,
      "scoreboard": 7146,
      "ucht": 7147,
      "uche": 7148,
      "wing": 7149,
      "wants": 7150,
      "xts": 7151,
      "ermög": 7152,
      "chair": 7153,
      "thre": 7154,
      "anger": 7155,
      "reje": 7156,
      "bekräft": 7157,
      "geber": 7158,
      "geänder": 7159,
      "texts": 7160,
      "anda": 7161,
      "amer": 7162,
      "weap": 7163,
      "zugleich": 7164,
      "zuständig": 7165,
      "oured": 7166,
      "verhalten": 7167,
      "embar": 7168,
      "genutzt": 7169,
      "dacht": 7170,
      "beruf": 7171,
      "ischem": 7172,
      "uting": 7173,
      "kept": 7174,
      "prospe": 7175,
      "spie": 7176,
      "sphere": 7177,
      "meld": 7178,
      "ulations": 7179,
      "lap": 7180,
      "gesp": 7181,
      "geste": 7182,
      "oss": 7183,
      "lieben": 7184,
      "Bezug": 7185,
      "Anzahl": 7186,
      "loc": 7187,
      "Proz": 7188,
      "feed": 7189,
      "Erhöhung": 7190,
      "legally": 7191,
      "obli": 7192,
      "Vorred": 7193,
      "formal": 7194,
      "unternommen": 7195,
      "Geist": 7196,
      "nationaler": 7197,
      "prevention": 7198,
      "anderes": 7199,
      "Kooperations": 7200,
      "hands": 7201,
      "handel": 7202,
      "marg": 7203,
      "compat": 7204,
      "news": 7205,
      "somewhat": 7206,
      "justified": 7207,
      "anyone": 7208,
      "Konvergen": 7209,
      "frecht": 7210,
      "anspr": 7211,
      "ansprechen": 7212,
      "Entwicklungshilfe": 7213,
      "Zusammenhalt": 7214,
      "monetary": 7215,
      "considers": 7216,
      "Consum": 7217,
      "dio": 7218,
      "stehende": 7219,
      "penalt": 7220,
      "festgelegten": 7221,
      "bringing": 7222,
      "ergän": 7223,
      "wesentliche": 7224,
      "realise": 7225,
      "science": 7226,
      "scrapie": 7227,
      "komme": 7228,
      "iminalität": 7229,
      "resolve": 7230,
      "brechen": 7231,
      "besseren": 7232,
      "Programmplan": 7233,
      "notwendige": 7234,
      "follows": 7235,
      "Charakter": 7236,
      "Flug": 7237,
      "corrup": 7238,
      "source": 7239,
      "hervorge": 7240,
      "understanding": 7241,
      "präz": 7242,
      "Meth": 7243,
      "surface": 7244,
      "Zweck": 7245,
      "personally": 7246,
      "übrigens": 7247,
      "affect": 7248,
      "applying": 7249,
      "multi": 7250,
      "increasingly": 7251,
      "animal": 7252,
      "passiert": 7253,
      "gangs": 7254,
      "Botschaft": 7255,
      "Sorgen": 7256,
      "modernisation": 7257,
      "planned": 7258,
      "Katastrophen": 7259,
      "Italy": 7260,
      "quote": 7261,
      "Volksgesundheit": 7262,
      "verstärken": 7263,
      "Sozialschutzes": 7264,
      "waiting": 7265,
      "satisf": 7266,
      "advantage": 7267,
      "speziellen": 7268,
      "ikanischen": 7269,
      "occasion": 7270,
      "facilit": 7271,
      "einheitliche": 7272,
      "Rechnungshof": 7273,
      "floor": 7274,
      "bestätigen": 7275,
      "Democrats": 7276,
      "original": 7277,
      "spartei": 7278,
      "profess": 7279,
      "Opfer": 7280,
      "habit": 7281,
      "Kohäsion": 7282,
      "Beschlüsse": 7283,
      "beeinträcht": 7284,
      "Bereitschaft": 7285,
      "Funktionieren": 7286,
      "infrastructure": 7287,
      "automat": 7288,
      "wältigen": 7289,
      "Deutsch": 7290,
      "Griechenland": 7291,
      "Gipfel": 7292,
      "Dänemark": 7293,
      "Annäherung": 7294,
      "außerordentlich": 7295,
      "Klima": 7296,
      "ästinens": 7297,
      "Freizügigkeit": 7298,
      "Agreement": 7299,
      "ermöglicht": 7300,
      "Konvergenz": 7301,
      "85": 7302,
      "87": 7303,
      "Di": 7304,
      "Güter": 7305,
      "Hil": 7306,
      "Here": 7307,
      "Korr": 7308,
      "Mor": 7309,
      "NG": 7310,
      "Phase": 7311,
      "PHAR": 7312,
      "SV": 7313,
      "aktion": 7314,
      "bs": 7315,
      "causes": 7316,
      "hoff": 7317,
      "jem": 7318,
      "kü": 7319,
      "tar": 7320,
      "uct": 7321,
      "writ": 7322,
      "wanted": 7323,
      "ünen": 7324,
      "eröff": 7325,
      "ermaßen": 7326,
      "income": 7327,
      "chines": 7328,
      "ana": 7329,
      "ano": 7330,
      "anwes": 7331,
      "becoming": 7332,
      "bekämpfung": 7333,
      "behau": 7334,
      "ash": 7335,
      "town": 7336,
      "geist": 7337,
      "eingeb": 7338,
      "dete": 7339,
      "schw": 7340,
      "zuletzt": 7341,
      "heber": 7342,
      "ilater": 7343,
      "whom": 7344,
      "meant": 7345,
      "allzu": 7346,
      "grateful": 7347,
      "uls": 7348,
      "demokraten": 7349,
      "Rechten": 7350,
      "gesicher": 7351,
      "ausweis": 7352,
      "überzeugen": 7353,
      "moder": 7354,
      "Anderer": 7355,
      "lost": 7356,
      "ernst": 7357,
      "appointed": 7358,
      "beigetragen": 7359,
      "Schwä": 7360,
      "links": 7361,
      "assungen": 7362,
      "ired": 7363,
      "poses": 7364,
      "politischer": 7365,
      "angekünd": 7366,
      "anging": 7367,
      "angest": 7368,
      "Kooperation": 7369,
      "consol": 7370,
      "compon": 7371,
      "comply": 7372,
      "standing": 7373,
      "standard": 7374,
      "mehrfach": 7375,
      "Konzentr": 7376,
      "dram": 7377,
      "drän": 7378,
      "provides": 7379,
      "says": 7380,
      "economies": 7381,
      "courts": 7382,
      "typ": 7383,
      "fordere": 7384,
      "overcome": 7385,
      "respond": 7386,
      "Minutes": 7387,
      "großem": 7388,
      "Contro": 7389,
      "gestaltet": 7390,
      "certainty": 7391,
      "pendence": 7392,
      "Rechtssicherheit": 7393,
      "wichtigste": 7394,
      "resolved": 7395,
      "Hinweis": 7396,
      "holding": 7397,
      "Genehm": 7398,
      "organised": 7399,
      "vollständig": 7400,
      "Beiträ": 7401,
      "Leider": 7402,
      "hole": 7403,
      "Market": 7404,
      "zeichnung": 7405,
      "Krise": 7406,
      "eingehalten": 7407,
      "succeed": 7408,
      "Entwicklungsländern": 7409,
      "152": 7410,
      "niemand": 7411,
      "Indones": 7412,
      "Socialist": 7413,
      "COD": 7414,
      "vorgeschlagene": 7415,
      "explicit": 7416,
      "ugoslaw": 7417,
      "Urs": 7418,
      "gewährleistet": 7419,
      "meaning": 7420,
      "played": 7421,
      "mittler": 7422,
      "Employment": 7423,
      "demonstrate": 7424,
      "generally": 7425,
      "restrict": 7426,
      "fertigt": 7427,
      "expectations": 7428,
      "nevertheless": 7429,
      "gebiete": 7430,
      "Afrika": 7431,
      "läuft": 7432,
      "spezielle": 7433,
      "nachhaltigen": 7434,
      "kohär": 7435,
      "supervision": 7436,
      "designed": 7437,
      "briefly": 7438,
      "concentrate": 7439,
      "schemes": 7440,
      "storms": 7441,
      "linked": 7442,
      "Wiederaufbau": 7443,
      "Risiko": 7444,
      "evaluation": 7445,
      "Oberflä": 7446,
      "Futtermittel": 7447,
      "Hoffnung": 7448,
      "Moreover": 7449,
      "Akteure": 7450,
      "Jugoslawien": 7451,
      "perspective": 7452,
      "jüngsten": 7453,
      "friend": 7454,
      "Scrapie": 7455,
      "Verletzung": 7456,
      "passed": 7457,
      "schafft": 7458,
      "Gebietskörperschaften": 7459,
      "läßlich": 7460,
      "Gerechtigkeit": 7461,
      "Glaubwürdigkeit": 7462,
      "Assoziierungs": 7463,
      "Wallström": 7464,
      "threaten": 7465,
      "PHARE": 7466,
      "behaup": 7467,
      "Andererseits": 7468,
      "Eing": 7469,
      "Eigen": 7470,
      "Grem": 7471,
      "Kop": 7472,
      "Niveau": 7473,
      "Nahen": 7474,
      "Offen": 7475,
      "Plä": 7476,
      "Sa": 7477,
      "Zentral": 7478,
      "bü": 7479,
      "dynam": 7480,
      "eder": 7481,
      "fö": 7482,
      "hre": 7483,
      "jugoslaw": 7484,
      "pill": 7485,
      "sach": 7486,
      "zerst": 7487,
      "ÖVP": 7488,
      "üben": 7489,
      "enze": 7490,
      "inhalt": 7491,
      "onic": 7492,
      "annehmen": 7493,
      "anwal": 7494,
      "ente": 7495,
      "entre": 7496,
      "entail": 7497,
      "lehnt": 7498,
      "lechter": 7499,
      "behalten": 7500,
      "bezeichnet": 7501,
      "tool": 7502,
      "wiß": 7503,
      "dennoch": 7504,
      "igkeits": 7505,
      "seven": 7506,
      "schlag": 7507,
      "verfolg": 7508,
      "rail": 7509,
      "ilot": 7510,
      "proved": 7511,
      "usion": 7512,
      "spunkt": 7513,
      "werten": 7514,
      "descri": 7515,
      "Verz": 7516,
      "Verurs": 7517,
      "tail": 7518,
      "Realität": 7519,
      "Beisp": 7520,
      "übernommen": 7521,
      "faced": 7522,
      "regierungs": 7523,
      "iens": 7524,
      "fehl": 7525,
      "got": 7526,
      "Wird": 7527,
      "obst": 7528,
      "ipher": 7529,
      "enswert": 7530,
      "incent": 7531,
      "Berichte": 7532,
      "unterzeichnet": 7533,
      "selben": 7534,
      "nachdem": 7535,
      "Gewässer": 7536,
      "anders": 7537,
      "underlying": 7538,
      "ankers": 7539,
      "Mitglieds": 7540,
      "nerstag": 7541,
      "geboten": 7542,
      "decis": 7543,
      "läufig": 7544,
      "udgets": 7545,
      "mine": 7546,
      "izon": 7547,
      "Gesam": 7548,
      "Gesicht": 7549,
      "Internationalen": 7550,
      "ignor": 7551,
      "wirtschaftlich": 7552,
      "wirkung": 7553,
      "virt": 7554,
      "matik": 7555,
      "supporting": 7556,
      "pays": 7557,
      "considerably": 7558,
      "financed": 7559,
      "processes": 7560,
      "drast": 7561,
      "kommun": 7562,
      "Finanzierungs": 7563,
      "Hindern": 7564,
      "Having": 7565,
      "laws": 7566,
      "taxpay": 7567,
      "bereiten": 7568,
      "bereitet": 7569,
      "technischen": 7570,
      "klaren": 7571,
      "valu": 7572,
      "Handlungs": 7573,
      "äußern": 7574,
      "Ministerrat": 7575,
      "New": 7576,
      "negotiating": 7577,
      "bestimmter": 7578,
      "Kollegin": 7579,
      "begrüßt": 7580,
      "eingeleitet": 7581,
      "definition": 7582,
      "Verhandlungs": 7583,
      "capable": 7584,
      "Entwicklungsländer": 7585,
      "allowing": 7586,
      "fähig": 7587,
      "wachen": 7588,
      "wünsch": 7589,
      "künftige": 7590,
      "grenzen": 7591,
      "bedro": 7592,
      "Darüber": 7593,
      "flexib": 7594,
      "charter": 7595,
      "treatment": 7596,
      "Urheber": 7597,
      "broa": 7598,
      "Director": 7599,
      "Schiff": 7600,
      "conflicts": 7601,
      "betrachten": 7602,
      "easier": 7603,
      "failure": 7604,
      "Nichtregierungs": 7605,
      "mandate": 7606,
      "respective": 7607,
      "reflect": 7608,
      "winden": 7609,
      "beantworten": 7610,
      "Gespräch": 7611,
      "tackle": 7612,
      "immigrants": 7613,
      "functioning": 7614,
      "Menschenrechtskommission": 7615,
      "origin": 7616,
      "Idee": 7617,
      "juris": 7618,
      "Sanktionen": 7619,
      "Beamten": 7620,
      "verteidigen": 7621,
      "Dienstleistungsausweis": 7622,
      "ausgezeichneten": 7623,
      "xenophobia": 7624,
      "Donnerstag": 7625,
      "Lastly": 7626,
      "ehemaligen": 7627,
      "freuen": 7628,
      "Syria": 7629,
      "schnitt": 7630,
      "Automobilindustrie": 7631,
      "Liberalen": 7632,
      "Böge": 7633,
      "territorial": 7634,
      "closer": 7635,
      "latter": 7636,
      "ernstha": 7637,
      "Palestin": 7638,
      "Familien": 7639,
      "excluded": 7640,
      "Dutch": 7641,
      "disparities": 7642,
      "Consumer": 7643,
      "Hilfs": 7644,
      "consolid": 7645,
      "Oberflächen": 7646,
      "Beispiele": 7647,
      "38": 7648,
      "47": 7649,
      "94": 7650,
      "95": 7651,
      "Bern": 7652,
      "Bese": 7653,
      "CEN": 7654,
      "Dev": 7655,
      "ED": 7656,
      "Eisen": 7657,
      "Ganz": 7658,
      "Kuba": 7659,
      "Nahr": 7660,
      "Spain": 7661,
      "Wä": 7662,
      "Zul": 7663,
      "bir": 7664,
      "cement": 7665,
      "dat": 7666,
      "dorf": 7667,
      "eten": 7668,
      "efe": 7669,
      "echte": 7670,
      "hoh": 7671,
      "kay": 7672,
      "len": 7673,
      "lös": 7674,
      "ost": 7675,
      "präsent": 7676,
      "öhn": 7677,
      "üb": 7678,
      "enh": 7679,
      "oni": 7680,
      "anträge": 7681,
      "itigung": 7682,
      "attet": 7683,
      "theit": 7684,
      "alternative": 7685,
      "stoffen": 7686,
      "stressed": 7687,
      "becomes": 7688,
      "urgency": 7689,
      "ingdorf": 7690,
      "weiger": 7691,
      "weaken": 7692,
      "semin": 7693,
      "schritt": 7694,
      "imag": 7695,
      "ican": 7696,
      "zuständigen": 7697,
      "oul": 7698,
      "ller": 7699,
      "consens": 7700,
      "diesel": 7701,
      "spending": 7702,
      "aufnehmen": 7703,
      "aufzunehmen": 7704,
      "ceeding": 7705,
      "umfang": 7706,
      "allowed": 7707,
      "mitteilen": 7708,
      "etze": 7709,
      "coalition": 7710,
      "Behinder": 7711,
      "tsein": 7712,
      "shared": 7713,
      "lob": 7714,
      "aganda": 7715,
      "Prof": 7716,
      "daraus": 7717,
      "thereby": 7718,
      "herzustellen": 7719,
      "gers": 7720,
      "Schüssel": 7721,
      "Vorlage": 7722,
      "Einklang": 7723,
      "nachdrücklich": 7724,
      "lications": 7725,
      "sibly": 7726,
      "factory": 7727,
      "seines": 7728,
      "actual": 7729,
      "occup": 7730,
      "welcher": 7731,
      "welchem": 7732,
      "path": 7733,
      "Zeitplan": 7734,
      "landen": 7735,
      "natür": 7736,
      "Consequently": 7737,
      "Mittelausstattung": 7738,
      "See": 7739,
      "Sektor": 7740,
      "ables": 7741,
      "abling": 7742,
      "wichtiges": 7743,
      "binden": 7744,
      "strategies": 7745,
      "strategischen": 7746,
      "adoption": 7747,
      "Hafen": 7748,
      "continent": 7749,
      "Monetary": 7750,
      "Ord": 7751,
      "Austausch": 7752,
      "hängen": 7753,
      "ziplin": 7754,
      "Arbeitsgruppe": 7755,
      "interesting": 7756,
      "highest": 7757,
      "Tagen": 7758,
      "Regierungsche": 7759,
      "Werk": 7760,
      "italien": 7761,
      "sprach": 7762,
      "Strukturen": 7763,
      "finding": 7764,
      "Systeme": 7765,
      "recovery": 7766,
      "built": 7767,
      "Baringdorf": 7768,
      "reaching": 7769,
      "expression": 7770,
      "entscheidende": 7771,
      "entscheidenden": 7772,
      "double": 7773,
      "Vertretern": 7774,
      "Straße": 7775,
      "treaty": 7776,
      "größten": 7777,
      "membership": 7778,
      "multip": 7779,
      "happened": 7780,
      "betreffend": 7781,
      "symbol": 7782,
      "allgemeine": 7783,
      "zentrale": 7784,
      "Fälle": 7785,
      "encouraging": 7786,
      "Fortschritt": 7787,
      "verlangen": 7788,
      "verloren": 7789,
      "distort": 7790,
      "Gegenstand": 7791,
      "Welth": 7792,
      "equally": 7793,
      "green": 7794,
      "recommendation": 7795,
      "obligation": 7796,
      "Does": 7797,
      "funktioniert": 7798,
      "Bemerkung": 7799,
      "früheren": 7800,
      "nationals": 7801,
      "depth": 7802,
      "monopolies": 7803,
      "Jahrhundert": 7804,
      "Untersuchung": 7805,
      "distribution": 7806,
      "Fehler": 7807,
      "constitute": 7808,
      "Investitionen": 7809,
      "associated": 7810,
      "Graefe": 7811,
      "Summit": 7812,
      "sämtliche": 7813,
      "racism": 7814,
      "substantial": 7815,
      "Wachstum": 7816,
      "excessive": 7817,
      "sanctions": 7818,
      "Einwanderung": 7819,
      "wettbewerbs": 7820,
      "Hintergrund": 7821,
      "spartner": 7822,
      "Ereignisse": 7823,
      "highlighted": 7824,
      "sorgfält": 7825,
      "Rapkay": 7826,
      "sympathy": 7827,
      "Auditors": 7828,
      "restricted": 7829,
      "amounts": 7830,
      "thousands": 7831,
      "Timor": 7832,
      "weapons": 7833,
      "Metho": 7834,
      "jemand": 7835,
      "anwesend": 7836,
      "Verursacher": 7837,
      "obstac": 7838,
      "Nichtregierungsorganisationen": 7839,
      "Beseitigung": 7840,
      "consensus": 7841,
      "55": 7842,
      "Aid": 7843,
      "KMU": 7844,
      "Mut": 7845,
      "Rules": 7846,
      "Sen": 7847,
      "TAC": 7848,
      "TEN": 7849,
      "aver": 7850,
      "bi": 7851,
      "eli": 7852,
      "fare": 7853,
      "hib": 7854,
      "iö": 7855,
      "msten": 7856,
      "migr": 7857,
      "passung": 7858,
      "pension": 7859,
      "raums": 7860,
      "sau": 7861,
      "ude": 7862,
      "yer": 7863,
      "erfahren": 7864,
      "erzielen": 7865,
      "chsel": 7866,
      "changing": 7867,
      "anschließen": 7868,
      "iterr": 7869,
      "atal": 7870,
      "reck": 7871,
      "retain": 7872,
      "reconstruction": 7873,
      "record": 7874,
      "alte": 7875,
      "orous": 7876,
      "bein": 7877,
      "bewe": 7878,
      "belong": 7879,
      "einig": 7880,
      "telt": 7881,
      "andal": 7882,
      "depart": 7883,
      "schreiben": 7884,
      "verletz": 7885,
      "abschließend": 7886,
      "bericht": 7887,
      "ille": 7888,
      "soeben": 7889,
      "ischung": 7890,
      "conta": 7891,
      "proceeding": 7892,
      "spür": 7893,
      "destro": 7894,
      "mel": 7895,
      "ulierung": 7896,
      "Reicht": 7897,
      "lager": 7898,
      "gested": 7899,
      "atever": 7900,
      "cot": 7901,
      "Beob": 7902,
      "überaus": 7903,
      "Thurs": 7904,
      "Ank": 7905,
      "Any": 7906,
      "Angleich": 7907,
      "ibiot": 7908,
      "faction": 7909,
      "hence": 7910,
      "Proced": 7911,
      "regime": 7912,
      "mögen": 7913,
      "prices": 7914,
      "weitgehend": 7915,
      "beiträ": 7916,
      "Geb": 7917,
      "Fragest": 7918,
      "dispos": 7919,
      "politic": 7920,
      "worked": 7921,
      "likely": 7922,
      "undertaken": 7923,
      "undertaking": 7924,
      "anzen": 7925,
      "programmen": 7926,
      "instance": 7927,
      "zwangs": 7928,
      "Zusätz": 7929,
      "Unternehmer": 7930,
      "courage": 7931,
      "debatt": 7932,
      "Mensch": 7933,
      "welchen": 7934,
      "Finan": 7935,
      "merken": 7936,
      "gestattet": 7937,
      "diversity": 7938,
      "vessels": 7939,
      "Umweltfragen": 7940,
      "lautet": 7941,
      "danach": 7942,
      "examination": 7943,
      "programming": 7944,
      "Alkoh": 7945,
      "amended": 7946,
      "Nachdruck": 7947,
      "requested": 7948,
      "industries": 7949,
      "moral": 7950,
      "Herzen": 7951,
      "necessarily": 7952,
      "Standpunkte": 7953,
      "represents": 7954,
      "Gerade": 7955,
      "valid": 7956,
      "stärken": 7957,
      "simpl": 7958,
      "extrem": 7959,
      "accounts": 7960,
      "transition": 7961,
      "Lebensqualität": 7962,
      "2020": 7963,
      "sequenz": 7964,
      "Polize": 7965,
      "folgende": 7966,
      "gutes": 7967,
      "Kontroll": 7968,
      "Zustand": 7969,
      "Steuerzahl": 7970,
      "ALTEN": 7971,
      "starke": 7972,
      "starken": 7973,
      "media": 7974,
      "kurzem": 7975,
      "bereiche": 7976,
      "bereichen": 7977,
      "ruh": 7978,
      "constitution": 7979,
      "surround": 7980,
      "groundwater": 7981,
      "informiert": 7982,
      "Generaldire": 7983,
      "Israeli": 7984,
      "eindeutige": 7985,
      "genannte": 7986,
      "schwierige": 7987,
      "Obwohl": 7988,
      "leader": 7989,
      "vorliegende": 7990,
      "suggested": 7991,
      "actively": 7992,
      "verantwortung": 7993,
      "philosoph": 7994,
      "contained": 7995,
      "clarify": 7996,
      "growing": 7997,
      "Gegensatz": 7998,
      "streben": 7999,
      "Albanian": 8000,
      "Italian": 8001,
      "beschränkt": 8002,
      "Prüf": 8003,
      "Zuständigkeiten": 8004,
      "Medien": 8005,
      "Organisationen": 8006,
      "legitimate": 8007,
      "Vorsitzenden": 8008,
      "wesentlicher": 8009,
      "education": 8010,
      "happens": 8011,
      "incorporated": 8012,
      "Städten": 8013,
      "method": 8014,
      "scheme": 8015,
      "explain": 8016,
      "advice": 8017,
      "Argumente": 8018,
      "spezifischen": 8019,
      "Basis": 8020,
      "ökonomischen": 8021,
      "falsch": 8022,
      "schlägt": 8023,
      "isheries": 8024,
      "genetically": 8025,
      "adox": 8026,
      "adapt": 8027,
      "Paritätischen": 8028,
      "verstehe": 8029,
      "Umständen": 8030,
      "beauftrag": 8031,
      "Sektoren": 8032,
      "issued": 8033,
      "Verteidigung": 8034,
      "obliged": 8035,
      "Deutschland": 8036,
      "Korrup": 8037,
      "Thursday": 8038,
      "Procedure": 8039,
      "Alkohol": 8040,
      "ALTENER": 8041,
      "67": 8042,
      "700": 8043,
      "82": 8044,
      "AG": 8045,
      "Bur": 8046,
      "Daten": 8047,
      "During": 8048,
      "Every": 8049,
      "IS": 8050,
      "Material": 8051,
      "Ori": 8052,
      "PSE": 8053,
      "Soll": 8054,
      "Sign": 8055,
      "Vi": 8056,
      "Wes": 8057,
      "cil": 8058,
      "drit": 8059,
      "hund": 8060,
      "hern": 8061,
      "ith": 8062,
      "kis": 8063,
      "mas": 8064,
      "ras": 8065,
      "rid": 8066,
      "sinc": 8067,
      "uals": 8068,
      "vation": 8069,
      "wann": 8070,
      "zieren": 8071,
      "inev": 8072,
      "intelle": 8073,
      "chmal": 8074,
      "isra": 8075,
      "unehmen": 8076,
      "reign": 8077,
      "remark": 8078,
      "dere": 8079,
      "aren": 8080,
      "argument": 8081,
      "entstehen": 8082,
      "leiden": 8083,
      "befaßt": 8084,
      "bewältigen": 8085,
      "gegangen": 8086,
      "gezeigt": 8087,
      "gearbeitet": 8088,
      "olk": 8089,
      "sets": 8090,
      "schwe": 8091,
      "schwä": 8092,
      "zuzu": 8093,
      "forest": 8094,
      "dahin": 8095,
      "ctual": 8096,
      "noted": 8097,
      "ission": 8098,
      "neither": 8099,
      "protest": 8100,
      "resto": 8101,
      "Vergleich": 8102,
      "Ins": 8103,
      "Revision": 8104,
      "Reaktion": 8105,
      "osen": 8106,
      "lives": 8107,
      "vorstellen": 8108,
      "expe": 8109,
      "exists": 8110,
      "mainstreaming": 8111,
      "übergreif": 8112,
      "itiv": 8113,
      "modell": 8114,
      "antworten": 8115,
      "Unions": 8116,
      "lowed": 8117,
      "Prote": 8118,
      "apart": 8119,
      "regierung": 8120,
      "Streit": 8121,
      "ollar": 8122,
      "beide": 8123,
      "beihilfen": 8124,
      "Erinner": 8125,
      "gerufen": 8126,
      "Schäden": 8127,
      "finance": 8128,
      "Vorgän": 8129,
      "lined": 8130,
      "perman": 8131,
      "Berger": 8132,
      "Abänder": 8133,
      "hinweg": 8134,
      "dish": 8135,
      "Grünen": 8136,
      "kannten": 8137,
      "angewand": 8138,
      "reichung": 8139,
      "uncer": 8140,
      "followed": 8141,
      "anzunehmen": 8142,
      "series": 8143,
      "nerg": 8144,
      "Entwicklungen": 8145,
      "zwungen": 8146,
      "führte": 8147,
      "evidence": 8148,
      "mehreren": 8149,
      "Konzept": 8150,
      "Konsult": 8151,
      "frem": 8152,
      "2001": 8153,
      "Gemeinden": 8154,
      "schließt": 8155,
      "deutschen": 8156,
      "träger": 8157,
      "relates": 8158,
      "relativ": 8159,
      "itely": 8160,
      "governing": 8161,
      "fällen": 8162,
      "paying": 8163,
      "considerations": 8164,
      "effektiv": 8165,
      "Überprü": 8166,
      "Kommissare": 8167,
      "laut": 8168,
      "Formen": 8169,
      "Security": 8170,
      "begonnen": 8171,
      "Bürgerinnen": 8172,
      "Sicherung": 8173,
      "evening": 8174,
      "vollkommen": 8175,
      "confir": 8176,
      "uerung": 8177,
      "Meinungs": 8178,
      "numerous": 8179,
      "affor": 8180,
      "resource": 8181,
      "transl": 8182,
      "transnational": 8183,
      "communic": 8184,
      "Kranken": 8185,
      "nehme": 8186,
      "Alli": 8187,
      "erfordert": 8188,
      "leitung": 8189,
      "Freude": 8190,
      "niemals": 8191,
      "aimed": 8192,
      "rufen": 8193,
      "preventing": 8194,
      "introduction": 8195,
      "introducing": 8196,
      "substance": 8197,
      "doub": 8198,
      "channel": 8199,
      "Todes": 8200,
      "delighted": 8201,
      "gradu": 8202,
      "aufgefordert": 8203,
      "implications": 8204,
      "breitet": 8205,
      "lokale": 8206,
      "lokaler": 8207,
      "wegs": 8208,
      "leaders": 8209,
      "strukturen": 8210,
      "negativen": 8211,
      "clarity": 8212,
      "strongly": 8213,
      "Vereinbarungen": 8214,
      "stream": 8215,
      "Beitrittsk": 8216,
      "Italien": 8217,
      "erhebliche": 8218,
      "Vielfalt": 8219,
      "österreichische": 8220,
      "entscheidungen": 8221,
      "Mediterr": 8222,
      "Entschließungsentwurf": 8223,
      "entirely": 8224,
      "unterstreichen": 8225,
      "Vermittlung": 8226,
      "äumen": 8227,
      "kontrolliert": 8228,
      "bemühen": 8229,
      "Fremdenfeind": 8230,
      "appears": 8231,
      "Kohäsions": 8232,
      "inspection": 8233,
      "Zivilgesellschaft": 8234,
      "geographical": 8235,
      "prozesses": 8236,
      "Volkspartei": 8237,
      "fassend": 8238,
      "anean": 8239,
      "benefits": 8240,
      "Wohlstand": 8241,
      "benachteiligten": 8242,
      "maximum": 8243,
      "Personal": 8244,
      "hypo": 8245,
      "vorangegangenen": 8246,
      "Wirklichkeit": 8247,
      "angebracht": 8248,
      "published": 8249,
      "donors": 8250,
      "märkte": 8251,
      "geeigne": 8252,
      "beizutragen": 8253,
      "transactions": 8254,
      "Golan": 8255,
      "relatively": 8256,
      "entitled": 8257,
      "verwaltung": 8258,
      "generell": 8259,
      "Wurtz": 8260,
      "Mechanismen": 8261,
      "schützen": 8262,
      "Spanien": 8263,
      "couple": 8264,
      "Vorredner": 8265,
      "hervorgehoben": 8266,
      "Konzentration": 8267,
      "Control": 8268,
      "Pläne": 8269,
      "entrepr": 8270,
      "Nahrungs": 8271,
      "Fragestunde": 8272,
      "zwangsläufig": 8273,
      "Financial": 8274,
      "Orient": 8275,
      "israel": 8276,
      "Mediterranean": 8277,
      "Fremdenfeindlichkeit": 8278,
      "Ak": 8279,
      "Ano": 8280,
      "Ala": 8281,
      "Bos": 8282,
      "Del": 8283,
      "GM": 8284,
      "GVO": 8285,
      "High": 8286,
      "Many": 8287,
      "Naz": 8288,
      "Val": 8289,
      "Voll": 8290,
      "Vice": 8291,
      "Viele": 8292,
      "ba": 8293,
      "cast": 8294,
      "cret": 8295,
      "gap": 8296,
      "hours": 8297,
      "kap": 8298,
      "liste": 8299,
      "mant": 8300,
      "pens": 8301,
      "ries": 8302,
      "tä": 8303,
      "tut": 8304,
      "vin": 8305,
      "written": 8306,
      "ügen": 8307,
      "ückt": 8308,
      "enger": 8309,
      "ergibt": 8310,
      "erarbeiten": 8311,
      "erarbeitet": 8312,
      "erzielt": 8313,
      "thly": 8314,
      "onial": 8315,
      "anche": 8316,
      "ancho": 8317,
      "unction": 8318,
      "uneingeschrän": 8319,
      "reaction": 8320,
      "remarks": 8321,
      "told": 8322,
      "einführen": 8323,
      "anden": 8324,
      "deleg": 8325,
      "omb": 8326,
      "omin": 8327,
      "denk": 8328,
      "seh": 8329,
      "seien": 8330,
      "section": 8331,
      "vertrag": 8332,
      "versicher": 8333,
      "verbrauch": 8334,
      "fores": 8335,
      "abend": 8336,
      "rain": 8337,
      "beraten": 8338,
      "proto": 8339,
      "proceed": 8340,
      "oppos": 8341,
      "option": 8342,
      "umfassend": 8343,
      "Verbreitung": 8344,
      "kture": 8345,
      "ktiver": 8346,
      "Inkraft": 8347,
      "Real": 8348,
      "liable": 8349,
      "vorliegt": 8350,
      "ffung": 8351,
      "Beachtung": 8352,
      "steuern": 8353,
      "shar": 8354,
      "überall": 8355,
      "ungszeit": 8356,
      "Anpassung": 8357,
      "comit": 8358,
      "Wege": 8359,
      "ager": 8360,
      "therlands": 8361,
      "einerseits": 8362,
      "Ausnahme": 8363,
      "uell": 8364,
      "obser": 8365,
      "enness": 8366,
      "staats": 8367,
      "samkeit": 8368,
      "ärmsten": 8369,
      "Parlamente": 8370,
      "spek": 8371,
      "speed": 8372,
      "peripher": 8373,
      "assau": 8374,
      "Beruf": 8375,
      "possibly": 8376,
      "Einrichtungen": 8377,
      "count": 8378,
      "selbe": 8379,
      "wahren": 8380,
      "1990": 8381,
      "Cohesion": 8382,
      "handlungen": 8383,
      "undertake": 8384,
      "gebil": 8385,
      "gebühren": 8386,
      "solange": 8387,
      "facts": 8388,
      "gelingt": 8389,
      "Konsequenz": 8390,
      "mindes": 8391,
      "presentation": 8392,
      "uchs": 8393,
      "stellungs": 8394,
      "insist": 8395,
      "Grundsätz": 8396,
      "operational": 8397,
      "Problems": 8398,
      "gleichheit": 8399,
      "welfare": 8400,
      "supports": 8401,
      "ategory": 8402,
      "basically": 8403,
      "ott": 8404,
      "environmentally": 8405,
      "reize": 8406,
      "yourself": 8407,
      "Mittelme": 8408,
      "Secret": 8409,
      "wiederum": 8410,
      "Zielsetzungen": 8411,
      "authorised": 8412,
      "Wassers": 8413,
      "Dafür": 8414,
      "Genf": 8415,
      "centre": 8416,
      "Gerichte": 8417,
      "gemeinsamer": 8418,
      "Netherlands": 8419,
      "aktive": 8420,
      "changed": 8421,
      "bestimmungen": 8422,
      "vanos": 8423,
      "offenbar": 8424,
      "folgenden": 8425,
      "jenen": 8426,
      "define": 8427,
      "langu": 8428,
      "smaller": 8429,
      "binding": 8430,
      "genauso": 8431,
      "peaceful": 8432,
      "guaranteed": 8433,
      "kurzfrist": 8434,
      "bedauer": 8435,
      "calls": 8436,
      "calling": 8437,
      "appeal": 8438,
      "appell": 8439,
      "anzuwenden": 8440,
      "please": 8441,
      "Binnenmarkts": 8442,
      "grad": 8443,
      "individuals": 8444,
      "Energien": 8445,
      "shows": 8446,
      "gewässer": 8447,
      "topic": 8448,
      "topical": 8449,
      "strengthening": 8450,
      "continued": 8451,
      "kriterien": 8452,
      "lings": 8453,
      "Positionen": 8454,
      "Selbstverständlich": 8455,
      "Irish": 8456,
      "Widersprü": 8457,
      "Fahrzeug": 8458,
      "unterschiedliche": 8459,
      "farming": 8460,
      "herrscht": 8461,
      "Vielleicht": 8462,
      "trotzdem": 8463,
      "scientists": 8464,
      "praktisch": 8465,
      "ringerung": 8466,
      "Serbia": 8467,
      "learn": 8468,
      "grundlegende": 8469,
      "exclusively": 8470,
      "erscheinen": 8471,
      "verabschieden": 8472,
      "Prakt": 8473,
      "Roma": 8474,
      "restor": 8475,
      "Spek": 8476,
      "firmly": 8477,
      "Jahrhunderts": 8478,
      "Subsidiaritätsprinzip": 8479,
      "Jugend": 8480,
      "knapp": 8481,
      "kürzlich": 8482,
      "massive": 8483,
      "grenzüberschreitende": 8484,
      "kompliziert": 8485,
      "erhöhen": 8486,
      "Ferner": 8487,
      "spolitischen": 8488,
      "horizon": 8489,
      "Verhaltens": 8490,
      "acknowledge": 8491,
      "langfristig": 8492,
      "Perspektive": 8493,
      "extension": 8494,
      "reagieren": 8495,
      "convenience": 8496,
      "nötig": 8497,
      "nachzudenken": 8498,
      "räumen": 8499,
      "Greens": 8500,
      "eingereicht": 8501,
      "defence": 8502,
      "Auftrag": 8503,
      "vorschläge": 8504,
      "endorse": 8505,
      "compatible": 8506,
      "professional": 8507,
      "hoffentlich": 8508,
      "Genehmigung": 8509,
      "Offenheit": 8510,
      "anwaltschaft": 8511,
      "average": 8512,
      "surrounding": 8513,
      "beauftragten": 8514,
      "Abänderungs": 8515,
      "Another": 8516,
      "Alavanos": 8517,
      "Inkrafttreten": 8518,
      ")).": 8519,
      "43": 8520,
      "524": 8521,
      "96": 8522,
      "AV": 8523,
      "Ben": 8524,
      "Bis": 8525,
      "Central": 8526,
      "CAP": 8527,
      "Dim": 8528,
      "Eigent": 8529,
      "GD": 8530,
      "HO": 8531,
      "Krä": 8532,
      "Lie": 8533,
      "MEs": 8534,
      "Oc": 8535,
      "Ok": 8536,
      "SMEs": 8537,
      "Vier": 8538,
      "ake": 8539,
      "bahn": 8540,
      "city": 8541,
      "category": 8542,
      "doppel": 8543,
      "günst": 8544,
      "rück": 8545,
      "scr": 8546,
      "slight": 8547,
      "uter": 8548,
      "yed": 8549,
      "yright": 8550,
      "zone": 8551,
      "öl": 8552,
      "erfolgt": 8553,
      "erfordern": 8554,
      "erhält": 8555,
      "anforderungen": 8556,
      "annehmbar": 8557,
      "isted": 8558,
      "unless": 8559,
      "itel": 8560,
      "rech": 8561,
      "reten": 8562,
      "alban": 8563,
      "stö": 8564,
      "stab": 8565,
      "stoff": 8566,
      "ardis": 8567,
      "roo": 8568,
      "ros": 8569,
      "rot": 8570,
      "rovic": 8571,
      "lebt": 8572,
      "getreten": 8573,
      "gedenkt": 8574,
      "andel": 8575,
      "auton": 8576,
      "dee": 8577,
      "dev": 8578,
      "urance": 8579,
      "schau": 8580,
      "imately": 8581,
      "zuvor": 8582,
      "verwenden": 8583,
      "verteilt": 8584,
      "vertritt": 8585,
      "verlangt": 8586,
      "ilf": 8587,
      "iler": 8588,
      "proof": 8589,
      "spakt": 8590,
      "openness": 8591,
      "trenn": 8592,
      "umfaßt": 8593,
      "Verringerung": 8594,
      "mittelt": 8595,
      "withdraw": 8596,
      "liefert": 8597,
      "vorgelegten": 8598,
      "cooperate": 8599,
      "Bekannt": 8600,
      "Befugnisse": 8601,
      "willigen": 8602,
      "willkommen": 8603,
      "Anreize": 8604,
      "Europeans": 8605,
      "failed": 8606,
      "worst": 8607,
      "parallel": 8608,
      "Stür": 8609,
      "Ausnahmen": 8610,
      "Mitrovic": 8611,
      "Erster": 8612,
      "interven": 8613,
      "Vorbe": 8614,
      "Frass": 8615,
      "ätigkeiten": 8616,
      "periode": 8617,
      "Abbau": 8618,
      "Presidents": 8619,
      "commod": 8620,
      "Einigung": 8621,
      "Berichten": 8622,
      "ighten": 8623,
      "strukture": 8624,
      "programms": 8625,
      "compla": 8626,
      "complic": 8627,
      "solve": 8628,
      "solcher": 8629,
      "deckt": 8630,
      "evident": 8631,
      "2004": 8632,
      "Defin": 8633,
      "ikation": 8634,
      "Gemeinschaften": 8635,
      "proposes": 8636,
      "probleme": 8637,
      "debating": 8638,
      "wirksame": 8639,
      "Besitz": 8640,
      "artige": 8641,
      "bestände": 8642,
      "wenige": 8643,
      "otal": 8644,
      "thorough": 8645,
      "isky": 8646,
      "Rechtsstaat": 8647,
      "Politiker": 8648,
      "countryside": 8649,
      "elektr": 8650,
      "Haft": 8651,
      "confident": 8652,
      "hosp": 8653,
      "liegenden": 8654,
      "respects": 8655,
      "opinions": 8656,
      "Debatten": 8657,
      "requirement": 8658,
      "Entschließungen": 8659,
      "ssern": 8660,
      "finanziert": 8661,
      "background": 8662,
      "secondly": 8663,
      "visit": 8664,
      "furthermore": 8665,
      "zusammenarbeit": 8666,
      "property": 8667,
      "Barak": 8668,
      "kleine": 8669,
      "hervorragen": 8670,
      "zweitens": 8671,
      "improvements": 8672,
      "Kompeten": 8673,
      "Haushaltslinie": 8674,
      "Dienststellen": 8675,
      "informieren": 8676,
      "gemeinschaftliche": 8677,
      "Like": 8678,
      "treated": 8679,
      "affects": 8680,
      "Cypriot": 8681,
      "mäßig": 8682,
      "komple": 8683,
      "Dialogs": 8684,
      "univers": 8685,
      "jedenfalls": 8686,
      "Fäh": 8687,
      "ministers": 8688,
      "bearing": 8689,
      "Gemeinschaftsinitiativen": 8690,
      "extended": 8691,
      "extending": 8692,
      "beschäftigt": 8693,
      "beschäftigung": 8694,
      "umfassenden": 8695,
      "zepräsident": 8696,
      "zählen": 8697,
      "zählt": 8698,
      "erfüllt": 8699,
      "Verschmutzung": 8700,
      "jährlich": 8701,
      "Minderheit": 8702,
      "Ratsvorsitz": 8703,
      "bürgern": 8704,
      "advanta": 8705,
      "Planung": 8706,
      "elsewhere": 8707,
      "kulturelle": 8708,
      "bestätigt": 8709,
      "determination": 8710,
      "motiv": 8711,
      "exception": 8712,
      "seekers": 8713,
      "ökologischen": 8714,
      "Schwerpunkt": 8715,
      "Männern": 8716,
      "distributed": 8717,
      "grenzüberschreitenden": 8718,
      "erhöht": 8719,
      "begrenzt": 8720,
      "Status": 8721,
      "anerkannt": 8722,
      "appreciate": 8723,
      "petition": 8724,
      "stärkere": 8725,
      "Laufe": 8726,
      "erläutern": 8727,
      "gebeten": 8728,
      "Schaden": 8729,
      "Faktor": 8730,
      "announced": 8731,
      "Transfer": 8732,
      "rokratie": 8733,
      "package": 8734,
      "Budgetary": 8735,
      "Chancengleichheit": 8736,
      "niederländ": 8737,
      "parlamentarischen": 8738,
      "widmen": 8739,
      "declared": 8740,
      "Landwirte": 8741,
      "städtischen": 8742,
      "belebung": 8743,
      "polluter": 8744,
      "insofern": 8745,
      "heavy": 8746,
      "chairman": 8747,
      "penalty": 8748,
      "corruption": 8749,
      "chinesischen": 8750,
      "Beiträge": 8751,
      "pillar": 8752,
      "decisive": 8753,
      "ernsthaft": 8754,
      "Regierungschefs": 8755,
      "disposal": 8756,
      "debattieren": 8757,
      "Vizepräsident": 8758,
      "sincere": 8759,
      "Überprüfung": 8760,
      "Beitrittskandidaten": 8761,
      "Secretary": 8762,
      "October": 8763,
      "Frassoni": 8764,
      "29": 8765,
      "Dingen": 8766,
      "Funkt": 8767,
      "GAP": 8768,
      "Kategor": 8769,
      "Mand": 8770,
      "NS": 8771,
      "Ost": 8772,
      "Prop": 8773,
      "POL": 8774,
      "Swe": 8775,
      "Trag": 8776,
      "Wohn": 8777,
      "Yes": 8778,
      "ades": 8779,
      "astr": 8780,
      "biß": 8781,
      "drop": 8782,
      "dum": 8783,
      "dritten": 8784,
      "fix": 8785,
      "hüt": 8786,
      "iary": 8787,
      "mm": 8788,
      "niveau": 8789,
      "pest": 8790,
      "enjo": 8791,
      "erteilen": 8792,
      "thal": 8793,
      "anhalten": 8794,
      "unbe": 8795,
      "unded": 8796,
      "itably": 8797,
      "attra": 8798,
      "revision": 8799,
      "bewirken": 8800,
      "bekämpfen": 8801,
      "asbourg": 8802,
      "einzur": 8803,
      "einger": 8804,
      "died": 8805,
      "außen": 8806,
      "deten": 8807,
      "omit": 8808,
      "igno": 8809,
      "weight": 8810,
      "sekret": 8811,
      "iced": 8812,
      "icks": 8813,
      "verm": 8814,
      "verdient": 8815,
      "verhandlungen": 8816,
      "teren": 8817,
      "tering": 8818,
      "absen": 8819,
      "absur": 8820,
      "abstain": 8821,
      "het": 8822,
      "noon": 8823,
      "ilst": 8824,
      "neun": 8825,
      "netz": 8826,
      "soweit": 8827,
      "irre": 8828,
      "spiel": 8829,
      "spite": 8830,
      "trust": 8831,
      "ulf": 8832,
      "Versuch": 8833,
      "Verträgen": 8834,
      "notification": 8835,
      "miteinander": 8836,
      "Inspe": 8837,
      "Instead": 8838,
      "Insofern": 8839,
      "essor": 8840,
      "identity": 8841,
      "identified": 8842,
      "vorhin": 8843,
      "Begriff": 8844,
      "Beförderung": 8845,
      "zeitige": 8846,
      "schaffung": 8847,
      "Angaben": 8848,
      "worte": 8849,
      "worthy": 8850,
      "paradox": 8851,
      "register": 8852,
      "Stud": 8853,
      "Stunden": 8854,
      "wass": 8855,
      "sake": 8856,
      "Ausweit": 8857,
      "Erfordern": 8858,
      "warm": 8859,
      "hersteller": 8860,
      "Vorrang": 8861,
      "partly": 8862,
      "stake": 8863,
      "inclus": 8864,
      "bruch": 8865,
      "Einschrän": 8866,
      "owner": 8867,
      "dissemin": 8868,
      "Umwel": 8869,
      "Maastr": 8870,
      "gebill": 8871,
      "gegenseit": 8872,
      "uropäischen": 8873,
      "gelang": 8874,
      "stande": 8875,
      "barr": 8876,
      "Detail": 8877,
      "drinking": 8878,
      "zieht": 8879,
      "Grundrecht": 8880,
      "economically": 8881,
      "boost": 8882,
      "court": 8883,
      "debated": 8884,
      "difference": 8885,
      "wirtschaftung": 8886,
      "Staates": 8887,
      "entry": 8888,
      "Strasbourg": 8889,
      "sicherstellen": 8890,
      "sicherzustellen": 8891,
      "bewerber": 8892,
      "seeking": 8893,
      "gehende": 8894,
      "rechtlich": 8895,
      "rechtliche": 8896,
      "owners": 8897,
      "authorisation": 8898,
      "protecting": 8899,
      "Genau": 8900,
      "Wasserressourcen": 8901,
      "breach": 8902,
      "bildet": 8903,
      "Instance": 8904,
      "Left": 8905,
      "Handeln": 8906,
      "contributed": 8907,
      "Priv": 8908,
      "Prime": 8909,
      "Kriminalität": 8910,
      "Fehlen": 8911,
      "folgendes": 8912,
      "gewöhn": 8913,
      "glauben": 8914,
      "millions": 8915,
      "millennium": 8916,
      "definiert": 8917,
      "Ansichten": 8918,
      "demokratisch": 8919,
      "zusammenzu": 8920,
      "speaker": 8921,
      "prägt": 8922,
      "Volkes": 8923,
      "successfully": 8924,
      "erkennt": 8925,
      "ambition": 8926,
      "Ihres": 8927,
      "entscheidend": 8928,
      "Lebensmittelbehörde": 8929,
      "surpr": 8930,
      "Straß": 8931,
      "gefährlichen": 8932,
      "drafting": 8933,
      "Ratspräsidenten": 8934,
      "gegenwärtige": 8935,
      "gewährt": 8936,
      "Stabilisierungs": 8937,
      "mäßigkeit": 8938,
      "multilater": 8939,
      "stood": 8940,
      "Verbesserungen": 8941,
      "uniform": 8942,
      "widerspie": 8943,
      "ifizierung": 8944,
      "fields": 8945,
      "ampag": 8946,
      "restruct": 8947,
      "animals": 8948,
      "heading": 8949,
      "marked": 8950,
      "strafe": 8951,
      "Israelis": 8952,
      "Both": 8953,
      "verhindert": 8954,
      "fortsetzen": 8955,
      "geltenden": 8956,
      "ethnischen": 8957,
      "Gefahrgut": 8958,
      "Questions": 8959,
      "Perhaps": 8960,
      "fighting": 8961,
      "Beteiligten": 8962,
      "repeated": 8963,
      "consequence": 8964,
      "Bedür": 8965,
      "Märkte": 8966,
      "kohärenz": 8967,
      "verstärkt": 8968,
      "sufficiently": 8969,
      "Friedensprozeß": 8970,
      "choice": 8971,
      "speriode": 8972,
      "violations": 8973,
      "satisfaction": 8974,
      "beantra": 8975,
      "radical": 8976,
      "preparation": 8977,
      "obligations": 8978,
      "behörden": 8979,
      "pursuant": 8980,
      "längerung": 8981,
      "Aktionsplan": 8982,
      "child": 8983,
      "details": 8984,
      "Asylbewerber": 8985,
      "running": 8986,
      "contradictions": 8987,
      "Terrón": 8988,
      "selection": 8989,
      "jahres": 8990,
      "Bürokratie": 8991,
      "verurteilen": 8992,
      "observations": 8993,
      "keineswegs": 8994,
      "condemn": 8995,
      "spoke": 8996,
      "Foreign": 8997,
      "Hohen": 8998,
      "unmittelbar": 8999,
      "menschliche": 9000,
      "Meeres": 9001,
      "Papier": 9002,
      "explanation": 9003,
      "projekte": 9004,
      "schriftlich": 9005,
      "griechischen": 9006,
      "Kontakte": 9007,
      "scharta": 9008,
      "verbessert": 9009,
      "advisers": 9010,
      "Trotz": 9011,
      "recycle": 9012,
      "jetzigen": 9013,
      "geändert": 9014,
      "gespielt": 9015,
      "marginal": 9016,
      "types": 9017,
      "lösung": 9018,
      "Welthandels": 9019,
      "permanent": 9020,
      "Kohäsionsfonds": 9021,
      "Bosn": 9022,
      "opposite": 9023,
      "horizontal": 9024,
      "Mitrovica": 9025,
      "bißchen": 9026,
      "hütung": 9027,
      "absence": 9028,
      "Ausweitung": 9029,
      "%.": 9030,
      "48": 9031,
      "613": 9032,
      "86": 9033,
      "850": 9034,
      "BB": 9035,
      "Bolk": 9036,
      "Ceder": 9037,
      "CNS": 9038,
      "Dan": 9039,
      "EF": 9040,
      "Fassung": 9041,
      "Id": 9042,
      "Jul": 9043,
      "Kur": 9044,
      "Kyo": 9045,
      "Mange": 9046,
      "Pin": 9047,
      "Rural": 9048,
      "Reding": 9049,
      "Sar": 9050,
      "Tra": 9051,
      "Treffen": 9052,
      "UK": 9053,
      "Water": 9054,
      "Where": 9055,
      "avour": 9056,
      "catastrop": 9057,
      "fres": 9058,
      "gigen": 9059,
      "gone": 9060,
      "ira": 9061,
      "kund": 9062,
      "liter": 9063,
      "mlich": 9064,
      "mid": 9065,
      "nine": 9066,
      "ry": 9067,
      "rent": 9068,
      "twent": 9069,
      "vy": 9070,
      "enfor": 9071,
      "eration": 9072,
      "erwiesen": 9073,
      "erleben": 9074,
      "erscheint": 9075,
      "ince": 9076,
      "thalten": 9077,
      "ongoing": 9078,
      "anbe": 9079,
      "andern": 9080,
      "anational": 9081,
[...]
